// Automatically created from a TensorFlow Lite flatbuffer using the command:
// xxd -i pirids_model.tflite > pirids_model_data.cc
// See the README for a full description of the creation process.

// Keep model aligned to 8 bytes to guarantee aligned 64-bit accesses.
alignas(8) const unsigned char wallet_model_data[] =  {
        0x1c, 0x00, 0x00, 0x00, 0x54, 0x46, 0x4c, 0x33, 0x14, 0x00, 0x20, 0x00,
        0x04, 0x00, 0x08, 0x00, 0x0c, 0x00, 0x10, 0x00, 0x14, 0x00, 0x00, 0x00,
        0x18, 0x00, 0x1c, 0x00, 0x14, 0x00, 0x00, 0x00, 0x03, 0x00, 0x00, 0x00,
        0x18, 0x00, 0x00, 0x00, 0x2c, 0x00, 0x00, 0x00, 0x58, 0x01, 0x00, 0x00,
        0x2c, 0x00, 0x00, 0x00, 0x00, 0x01, 0x00, 0x00, 0x78, 0x00, 0x00, 0x00,
        0x05, 0x00, 0x00, 0x00, 0x94, 0x07, 0x00, 0x00, 0xb0, 0x06, 0x00, 0x00,
        0x4c, 0x04, 0x00, 0x00, 0x88, 0x03, 0x00, 0x00, 0x2c, 0x02, 0x00, 0x00,
        0x01, 0x00, 0x00, 0x00, 0x50, 0x01, 0x00, 0x00, 0x14, 0x00, 0x00, 0x00,
        0x9c, 0x4e, 0x00, 0x00, 0x98, 0x4e, 0x00, 0x00, 0xb4, 0x4d, 0x00, 0x00,
        0x28, 0x4d, 0x00, 0x00, 0xa4, 0x4c, 0x00, 0x00, 0x44, 0x4c, 0x00, 0x00,
        0xd8, 0x4b, 0x00, 0x00, 0x88, 0x13, 0x00, 0x00, 0x34, 0x12, 0x00, 0x00,
        0x58, 0x10, 0x00, 0x00, 0xfc, 0x07, 0x00, 0x00, 0x70, 0x4e, 0x00, 0x00,
        0x6c, 0x4e, 0x00, 0x00, 0x68, 0x4e, 0x00, 0x00, 0x64, 0x4e, 0x00, 0x00,
        0x60, 0x4e, 0x00, 0x00, 0x5c, 0x4e, 0x00, 0x00, 0x58, 0x4e, 0x00, 0x00,
        0x54, 0x4e, 0x00, 0x00, 0xbc, 0x00, 0x00, 0x00, 0x01, 0x00, 0x00, 0x00,
        0x10, 0x00, 0x00, 0x00, 0x00, 0x00, 0x0a, 0x00, 0x10, 0x00, 0x0c, 0x00,
        0x08, 0x00, 0x04, 0x00, 0x0a, 0x00, 0x00, 0x00, 0x0c, 0x00, 0x00, 0x00,
        0x1c, 0x00, 0x00, 0x00, 0x20, 0x00, 0x00, 0x00, 0x0f, 0x00, 0x00, 0x00,
        0x73, 0x65, 0x72, 0x76, 0x69, 0x6e, 0x67, 0x5f, 0x64, 0x65, 0x66, 0x61,
        0x75, 0x6c, 0x74, 0x00, 0x01, 0x00, 0x00, 0x00, 0x14, 0x00, 0x00, 0x00,
        0x01, 0x00, 0x00, 0x00, 0x24, 0x00, 0x00, 0x00, 0x08, 0x00, 0x0c, 0x00,
        0x08, 0x00, 0x04, 0x00, 0x08, 0x00, 0x00, 0x00, 0x11, 0x00, 0x00, 0x00,
        0x04, 0x00, 0x00, 0x00, 0x07, 0x00, 0x00, 0x00, 0x64, 0x65, 0x6e, 0x73,
        0x65, 0x5f, 0x31, 0x00, 0x02, 0xb3, 0xff, 0xff, 0x04, 0x00, 0x00, 0x00,
        0x0c, 0x00, 0x00, 0x00, 0x63, 0x6f, 0x6e, 0x76, 0x32, 0x64, 0x5f, 0x69,
        0x6e, 0x70, 0x75, 0x74, 0x00, 0x00, 0x00, 0x00, 0x01, 0x00, 0x00, 0x00,
        0x0c, 0x00, 0x00, 0x00, 0x08, 0x00, 0x0c, 0x00, 0x04, 0x00, 0x08, 0x00,
        0x08, 0x00, 0x00, 0x00, 0x08, 0x00, 0x00, 0x00, 0x13, 0x00, 0x00, 0x00,
        0x13, 0x00, 0x00, 0x00, 0x6d, 0x69, 0x6e, 0x5f, 0x72, 0x75, 0x6e, 0x74,
        0x69, 0x6d, 0x65, 0x5f, 0x76, 0x65, 0x72, 0x73, 0x69, 0x6f, 0x6e, 0x00,
        0x52, 0xb3, 0xff, 0xff, 0x04, 0x00, 0x00, 0x00, 0x10, 0x00, 0x00, 0x00,
        0x31, 0x2e, 0x35, 0x2e, 0x30, 0x00, 0x00, 0x00, 0x00, 0x00, 0x00, 0x00,
        0x00, 0x00, 0x00, 0x00, 0x0f, 0x00, 0x00, 0x00, 0x4d, 0x4c, 0x49, 0x52,
        0x20, 0x43, 0x6f, 0x6e, 0x76, 0x65, 0x72, 0x74, 0x65, 0x64, 0x2e, 0x00,
        0x00, 0x00, 0x0e, 0x00, 0x18, 0x00, 0x04, 0x00, 0x08, 0x00, 0x0c, 0x00,
        0x10, 0x00, 0x14, 0x00, 0x0e, 0x00, 0x00, 0x00, 0x14, 0x00, 0x00, 0x00,
        0x5c, 0x00, 0x00, 0x00, 0x60, 0x00, 0x00, 0x00, 0x64, 0x00, 0x00, 0x00,
        0x84, 0x00, 0x00, 0x00, 0x12, 0x00, 0x00, 0x00, 0xcc, 0x4c, 0x00, 0x00,
        0x80, 0x4c, 0x00, 0x00, 0x14, 0x4c, 0x00, 0x00, 0x90, 0x4b, 0x00, 0x00,
        0x10, 0x4b, 0x00, 0x00, 0x9c, 0x4a, 0x00, 0x00, 0x34, 0x4a, 0x00, 0x00,
        0xe0, 0x11, 0x00, 0x00, 0x84, 0x10, 0x00, 0x00, 0xa8, 0x0e, 0x00, 0x00,
        0xf8, 0x05, 0x00, 0x00, 0x14, 0x05, 0x00, 0x00, 0xf8, 0x03, 0x00, 0x00,
        0x4c, 0x03, 0x00, 0x00, 0xa8, 0x02, 0x00, 0x00, 0xe4, 0x01, 0x00, 0x00,
        0x20, 0x01, 0x00, 0x00, 0x84, 0x00, 0x00, 0x00, 0x01, 0x00, 0x00, 0x00,
        0x00, 0x00, 0x00, 0x00, 0x01, 0x00, 0x00, 0x00, 0x11, 0x00, 0x00, 0x00,
        0x08, 0x00, 0x00, 0x00, 0x60, 0x05, 0x00, 0x00, 0x80, 0x04, 0x00, 0x00,
        0x88, 0x03, 0x00, 0x00, 0xcc, 0x02, 0x00, 0x00, 0x40, 0x02, 0x00, 0x00,
        0x60, 0x01, 0x00, 0x00, 0xb8, 0x00, 0x00, 0x00, 0x10, 0x00, 0x00, 0x00,
        0x04, 0x00, 0x00, 0x00, 0x6d, 0x61, 0x69, 0x6e, 0x00, 0x00, 0x00, 0x00,
        0x6a, 0xff, 0xff, 0xff, 0x00, 0x00, 0x00, 0x09, 0x04, 0x00, 0x00, 0x00,
        0x1c, 0x00, 0x00, 0x00, 0x10, 0x00, 0x00, 0x00, 0x04, 0x00, 0x00, 0x00,
        0x4e, 0xb4, 0xff, 0xff, 0x00, 0x00, 0x80, 0x3f, 0x01, 0x00, 0x00, 0x00,
        0x11, 0x00, 0x00, 0x00, 0x01, 0x00, 0x00, 0x00, 0x10, 0x00, 0x00, 0x00,
        0xb4, 0xfa, 0xff, 0xff, 0x19, 0x00, 0x00, 0x00, 0x00, 0x00, 0x00, 0x19,
        0x01, 0x00, 0x00, 0x00, 0x10, 0xb4, 0xff, 0xff, 0x14, 0x00, 0x00, 0x00,
        0x12, 0x00, 0x00, 0x00, 0x24, 0x00, 0x00, 0x00, 0x40, 0x00, 0x00, 0x00,
        0x10, 0x00, 0x00, 0x00, 0x02, 0x00, 0x00, 0x00, 0x01, 0x00, 0x00, 0x00,
        0x04, 0x00, 0x00, 0x00, 0x02, 0x00, 0x00, 0x00, 0xff, 0xff, 0xff, 0xff,
        0x04, 0x00, 0x00, 0x00, 0x19, 0x00, 0x00, 0x00, 0x53, 0x74, 0x61, 0x74,
        0x65, 0x66, 0x75, 0x6c, 0x50, 0x61, 0x72, 0x74, 0x69, 0x74, 0x69, 0x6f,
        0x6e, 0x65, 0x64, 0x43, 0x61, 0x6c, 0x6c, 0x3a, 0x30, 0x00, 0x00, 0x00,
        0xd0, 0xb4, 0xff, 0xff, 0x00, 0x00, 0x0e, 0x00, 0x18, 0x00, 0x08, 0x00,
        0x0c, 0x00, 0x10, 0x00, 0x07, 0x00, 0x14, 0x00, 0x0e, 0x00, 0x00, 0x00,
        0x00, 0x00, 0x00, 0x08, 0x03, 0x00, 0x00, 0x00, 0x18, 0x00, 0x00, 0x00,
        0x0c, 0x00, 0x00, 0x00, 0x04, 0x00, 0x00, 0x00, 0x10, 0xb4, 0xff, 0xff,
        0x01, 0x00, 0x00, 0x00, 0x10, 0x00, 0x00, 0x00, 0x03, 0x00, 0x00, 0x00,
        0x0f, 0x00, 0x00, 0x00, 0x07, 0x00, 0x00, 0x00, 0x01, 0x00, 0x00, 0x00,
        0xa8, 0xb4, 0xff, 0xff, 0x14, 0x00, 0x00, 0x00, 0x11, 0x00, 0x00, 0x00,
        0x24, 0x00, 0x00, 0x00, 0x5c, 0x00, 0x00, 0x00, 0x10, 0x00, 0x00, 0x00,
        0x02, 0x00, 0x00, 0x00, 0x01, 0x00, 0x00, 0x00, 0x04, 0x00, 0x00, 0x00,
        0x02, 0x00, 0x00, 0x00, 0xff, 0xff, 0xff, 0xff, 0x04, 0x00, 0x00, 0x00,
        0x34, 0x00, 0x00, 0x00, 0x73, 0x65, 0x71, 0x75, 0x65, 0x6e, 0x74, 0x69,
        0x61, 0x6c, 0x2f, 0x64, 0x65, 0x6e, 0x73, 0x65, 0x5f, 0x31, 0x2f, 0x4d,
        0x61, 0x74, 0x4d, 0x75, 0x6c, 0x3b, 0x73, 0x65, 0x71, 0x75, 0x65, 0x6e,
        0x74, 0x69, 0x61, 0x6c, 0x2f, 0x64, 0x65, 0x6e, 0x73, 0x65, 0x5f, 0x31,
        0x2f, 0x42, 0x69, 0x61, 0x73, 0x41, 0x64, 0x64, 0x00, 0x00, 0x00, 0x00,
        0x98, 0xb4, 0xff, 0xff, 0xfe, 0xfc, 0xff, 0xff, 0x00, 0x00, 0x00, 0x08,
        0x03, 0x00, 0x00, 0x00, 0x24, 0x00, 0x00, 0x00, 0x18, 0x00, 0x00, 0x00,
        0x0c, 0x00, 0x00, 0x00, 0x00, 0x00, 0x06, 0x00, 0x08, 0x00, 0x07, 0x00,
        0x06, 0x00, 0x00, 0x00, 0x00, 0x00, 0x00, 0x01, 0x01, 0x00, 0x00, 0x00,
        0x0f, 0x00, 0x00, 0x00, 0x03, 0x00, 0x00, 0x00, 0x0e, 0x00, 0x00, 0x00,
        0x06, 0x00, 0x00, 0x00, 0x02, 0x00, 0x00, 0x00, 0x0c, 0xfc, 0xff, 0xff,
        0x09, 0x00, 0x00, 0x00, 0x00, 0x00, 0x00, 0x09, 0x01, 0x00, 0x00, 0x00,
        0x68, 0xb5, 0xff, 0xff, 0x14, 0x00, 0x00, 0x00, 0x10, 0x00, 0x00, 0x00,
        0x24, 0x00, 0x00, 0x00, 0x6c, 0x00, 0x00, 0x00, 0x10, 0x00, 0x00, 0x00,
        0x02, 0x00, 0x00, 0x00, 0x01, 0x00, 0x00, 0x00, 0x10, 0x00, 0x00, 0x00,
        0x02, 0x00, 0x00, 0x00, 0xff, 0xff, 0xff, 0xff, 0x10, 0x00, 0x00, 0x00,
        0x46, 0x00, 0x00, 0x00, 0x73, 0x65, 0x71, 0x75, 0x65, 0x6e, 0x74, 0x69,
        0x61, 0x6c, 0x2f, 0x64, 0x65, 0x6e, 0x73, 0x65, 0x2f, 0x4d, 0x61, 0x74,
        0x4d, 0x75, 0x6c, 0x3b, 0x73, 0x65, 0x71, 0x75, 0x65, 0x6e, 0x74, 0x69,
        0x61, 0x6c, 0x2f, 0x64, 0x65, 0x6e, 0x73, 0x65, 0x2f, 0x52, 0x65, 0x6c,
        0x75, 0x3b, 0x73, 0x65, 0x71, 0x75, 0x65, 0x6e, 0x74, 0x69, 0x61, 0x6c,
        0x2f, 0x64, 0x65, 0x6e, 0x73, 0x65, 0x2f, 0x42, 0x69, 0x61, 0x73, 0x41,
        0x64, 0x64, 0x00, 0x00, 0x54, 0xb6, 0xff, 0xff, 0x00, 0x00, 0x0a, 0x00,
        0x10, 0x00, 0x04, 0x00, 0x08, 0x00, 0x0c, 0x00, 0x0a, 0x00, 0x00, 0x00,
        0x02, 0x00, 0x00, 0x00, 0x10, 0x00, 0x00, 0x00, 0x04, 0x00, 0x00, 0x00,
        0x01, 0x00, 0x00, 0x00, 0x0e, 0x00, 0x00, 0x00, 0x02, 0x00, 0x00, 0x00,
        0x0d, 0x00, 0x00, 0x00, 0x05, 0x00, 0x00, 0x00, 0xcc, 0xfc, 0xff, 0xff,
        0x16, 0x00, 0x00, 0x00, 0x00, 0x00, 0x00, 0x16, 0x01, 0x00, 0x00, 0x00,
        0x28, 0xb6, 0xff, 0xff, 0x14, 0x00, 0x00, 0x00, 0x0f, 0x00, 0x00, 0x00,
        0x24, 0x00, 0x00, 0x00, 0x40, 0x00, 0x00, 0x00, 0x10, 0x00, 0x00, 0x00,
        0x02, 0x00, 0x00, 0x00, 0x01, 0x00, 0x00, 0x00, 0xe0, 0x00, 0x00, 0x00,
        0x02, 0x00, 0x00, 0x00, 0xff, 0xff, 0xff, 0xff, 0xe0, 0x00, 0x00, 0x00,
        0x1a, 0x00, 0x00, 0x00, 0x73, 0x65, 0x71, 0x75, 0x65, 0x6e, 0x74, 0x69,
        0x61, 0x6c, 0x2f, 0x66, 0x6c, 0x61, 0x74, 0x74, 0x65, 0x6e, 0x2f, 0x52,
        0x65, 0x73, 0x68, 0x61, 0x70, 0x65, 0x00, 0x00, 0xfc, 0xb5, 0xff, 0xff,
        0x62, 0xfe, 0xff, 0xff, 0x00, 0x00, 0x00, 0x05, 0x01, 0x00, 0x00, 0x00,
        0x38, 0x00, 0x00, 0x00, 0x2c, 0x00, 0x00, 0x00, 0x14, 0x00, 0x00, 0x00,
        0x00, 0x00, 0x0e, 0x00, 0x14, 0x00, 0x00, 0x00, 0x10, 0x00, 0x0c, 0x00,
        0x08, 0x00, 0x04, 0x00, 0x0e, 0x00, 0x00, 0x00, 0x03, 0x00, 0x00, 0x00,
        0x01, 0x00, 0x00, 0x00, 0x03, 0x00, 0x00, 0x00, 0x01, 0x00, 0x00, 0x00,
        0x01, 0x00, 0x00, 0x00, 0x0d, 0x00, 0x00, 0x00, 0x01, 0x00, 0x00, 0x00,
        0x0c, 0x00, 0x00, 0x00, 0xc8, 0xb6, 0xff, 0xff, 0x14, 0x00, 0x00, 0x00,
        0x0e, 0x00, 0x00, 0x00, 0x34, 0x00, 0x00, 0x00, 0x58, 0x00, 0x00, 0x00,
        0x18, 0x00, 0x00, 0x00, 0x04, 0x00, 0x00, 0x00, 0x01, 0x00, 0x00, 0x00,
        0x0e, 0x00, 0x00, 0x00, 0x01, 0x00, 0x00, 0x00, 0x10, 0x00, 0x00, 0x00,
        0x04, 0x00, 0x00, 0x00, 0xff, 0xff, 0xff, 0xff, 0x0e, 0x00, 0x00, 0x00,
        0x01, 0x00, 0x00, 0x00, 0x10, 0x00, 0x00, 0x00, 0x22, 0x00, 0x00, 0x00,
        0x73, 0x65, 0x71, 0x75, 0x65, 0x6e, 0x74, 0x69, 0x61, 0x6c, 0x2f, 0x6d,
        0x61, 0x78, 0x5f, 0x70, 0x6f, 0x6f, 0x6c, 0x69, 0x6e, 0x67, 0x32, 0x64,
        0x5f, 0x31, 0x2f, 0x4d, 0x61, 0x78, 0x50, 0x6f, 0x6f, 0x6c, 0x00, 0x00,
        0xb4, 0xb6, 0xff, 0xff, 0x3e, 0xfe, 0xff, 0xff, 0x00, 0x00, 0x00, 0x01,
        0x24, 0x00, 0x00, 0x00, 0x18, 0x00, 0x00, 0x00, 0x04, 0x00, 0x00, 0x00,
        0x30, 0xfe, 0xff, 0xff, 0x01, 0x00, 0x00, 0x00, 0x01, 0x00, 0x00, 0x00,
        0x00, 0x00, 0x00, 0x01, 0x01, 0x00, 0x00, 0x00, 0x0c, 0x00, 0x00, 0x00,
        0x03, 0x00, 0x00, 0x00, 0x0b, 0x00, 0x00, 0x00, 0x09, 0x00, 0x00, 0x00,
        0x03, 0x00, 0x00, 0x00, 0x70, 0xb7, 0xff, 0xff, 0x14, 0x00, 0x00, 0x00,
        0x0d, 0x00, 0x00, 0x00, 0x34, 0x00, 0x00, 0x00, 0x94, 0x00, 0x00, 0x00,
        0x18, 0x00, 0x00, 0x00, 0x04, 0x00, 0x00, 0x00, 0x01, 0x00, 0x00, 0x00,
        0x2a, 0x00, 0x00, 0x00, 0x01, 0x00, 0x00, 0x00, 0x10, 0x00, 0x00, 0x00,
        0x04, 0x00, 0x00, 0x00, 0xff, 0xff, 0xff, 0xff, 0x2a, 0x00, 0x00, 0x00,
        0x01, 0x00, 0x00, 0x00, 0x10, 0x00, 0x00, 0x00, 0x5d, 0x00, 0x00, 0x00,
        0x73, 0x65, 0x71, 0x75, 0x65, 0x6e, 0x74, 0x69, 0x61, 0x6c, 0x2f, 0x63,
        0x6f, 0x6e, 0x76, 0x32, 0x64, 0x5f, 0x31, 0x2f, 0x52, 0x65, 0x6c, 0x75,
        0x3b, 0x73, 0x65, 0x71, 0x75, 0x65, 0x6e, 0x74, 0x69, 0x61, 0x6c, 0x2f,
        0x63, 0x6f, 0x6e, 0x76, 0x32, 0x64, 0x5f, 0x31, 0x2f, 0x42, 0x69, 0x61,
        0x73, 0x41, 0x64, 0x64, 0x3b, 0x73, 0x65, 0x71, 0x75, 0x65, 0x6e, 0x74,
        0x69, 0x61, 0x6c, 0x2f, 0x63, 0x6f, 0x6e, 0x76, 0x32, 0x64, 0x5f, 0x31,
        0x2f, 0x43, 0x6f, 0x6e, 0x76, 0x32, 0x44, 0x3b, 0x63, 0x6f, 0x6e, 0x76,
        0x32, 0x64, 0x5f, 0x31, 0x2f, 0x62, 0x69, 0x61, 0x73, 0x00, 0x00, 0x00,
        0x84, 0xb8, 0xff, 0xff, 0x00, 0x00, 0x0e, 0x00, 0x1a, 0x00, 0x08, 0x00,
        0x0c, 0x00, 0x10, 0x00, 0x07, 0x00, 0x14, 0x00, 0x0e, 0x00, 0x00, 0x00,
        0x00, 0x00, 0x00, 0x05, 0x01, 0x00, 0x00, 0x00, 0x3c, 0x00, 0x00, 0x00,
        0x30, 0x00, 0x00, 0x00, 0x14, 0x00, 0x00, 0x00, 0x00, 0x00, 0x0e, 0x00,
        0x18, 0x00, 0x17, 0x00, 0x10, 0x00, 0x0c, 0x00, 0x08, 0x00, 0x04, 0x00,
        0x0e, 0x00, 0x00, 0x00, 0x03, 0x00, 0x00, 0x00, 0x03, 0x00, 0x00, 0x00,
        0x03, 0x00, 0x00, 0x00, 0x03, 0x00, 0x00, 0x00, 0x00, 0x00, 0x00, 0x01,
        0x01, 0x00, 0x00, 0x00, 0x0b, 0x00, 0x00, 0x00, 0x01, 0x00, 0x00, 0x00,
        0x0a, 0x00, 0x00, 0x00, 0x2c, 0xff, 0xff, 0xff, 0x11, 0x00, 0x00, 0x00,
        0x00, 0x00, 0x00, 0x11, 0x01, 0x00, 0x00, 0x00, 0x88, 0xb8, 0xff, 0xff,
        0x14, 0x00, 0x00, 0x00, 0x0c, 0x00, 0x00, 0x00, 0x34, 0x00, 0x00, 0x00,
        0x58, 0x00, 0x00, 0x00, 0x18, 0x00, 0x00, 0x00, 0x04, 0x00, 0x00, 0x00,
        0x01, 0x00, 0x00, 0x00, 0x2a, 0x00, 0x00, 0x00, 0x01, 0x00, 0x00, 0x00,
        0x08, 0x00, 0x00, 0x00, 0x04, 0x00, 0x00, 0x00, 0xff, 0xff, 0xff, 0xff,
        0x2a, 0x00, 0x00, 0x00, 0x01, 0x00, 0x00, 0x00, 0x08, 0x00, 0x00, 0x00,
        0x20, 0x00, 0x00, 0x00, 0x73, 0x65, 0x71, 0x75, 0x65, 0x6e, 0x74, 0x69,
        0x61, 0x6c, 0x2f, 0x6d, 0x61, 0x78, 0x5f, 0x70, 0x6f, 0x6f, 0x6c, 0x69,
        0x6e, 0x67, 0x32, 0x64, 0x2f, 0x4d, 0x61, 0x78, 0x50, 0x6f, 0x6f, 0x6c,
        0x00, 0x00, 0x00, 0x00, 0x60, 0xb9, 0xff, 0xff, 0x00, 0x00, 0x0e, 0x00,
        0x14, 0x00, 0x00, 0x00, 0x08, 0x00, 0x0c, 0x00, 0x07, 0x00, 0x10, 0x00,
        0x0e, 0x00, 0x00, 0x00, 0x00, 0x00, 0x00, 0x01, 0x30, 0x00, 0x00, 0x00,
        0x24, 0x00, 0x00, 0x00, 0x10, 0x00, 0x00, 0x00, 0x0c, 0x00, 0x10, 0x00,
        0x00, 0x00, 0x04, 0x00, 0x08, 0x00, 0x0f, 0x00, 0x0c, 0x00, 0x00, 0x00,
        0x01, 0x00, 0x00, 0x00, 0x01, 0x00, 0x00, 0x00, 0x00, 0x00, 0x00, 0x01,
        0x01, 0x00, 0x00, 0x00, 0x0a, 0x00, 0x00, 0x00, 0x03, 0x00, 0x00, 0x00,
        0x00, 0x00, 0x00, 0x00, 0x08, 0x00, 0x00, 0x00, 0x04, 0x00, 0x00, 0x00,
        0x0c, 0x00, 0x10, 0x00, 0x0b, 0x00, 0x00, 0x00, 0x0c, 0x00, 0x04, 0x00,
        0x0c, 0x00, 0x00, 0x00, 0x03, 0x00, 0x00, 0x00, 0x00, 0x00, 0x00, 0x03,
        0x01, 0x00, 0x00, 0x00, 0x68, 0xb9, 0xff, 0xff, 0x14, 0x00, 0x00, 0x00,
        0x0b, 0x00, 0x00, 0x00, 0x34, 0x00, 0x00, 0x00, 0x8c, 0x00, 0x00, 0x00,
        0x18, 0x00, 0x00, 0x00, 0x04, 0x00, 0x00, 0x00, 0x01, 0x00, 0x00, 0x00,
        0x80, 0x00, 0x00, 0x00, 0x03, 0x00, 0x00, 0x00, 0x08, 0x00, 0x00, 0x00,
        0x04, 0x00, 0x00, 0x00, 0xff, 0xff, 0xff, 0xff, 0x80, 0x00, 0x00, 0x00,
        0x03, 0x00, 0x00, 0x00, 0x08, 0x00, 0x00, 0x00, 0x55, 0x00, 0x00, 0x00,
        0x73, 0x65, 0x71, 0x75, 0x65, 0x6e, 0x74, 0x69, 0x61, 0x6c, 0x2f, 0x63,
        0x6f, 0x6e, 0x76, 0x32, 0x64, 0x2f, 0x52, 0x65, 0x6c, 0x75, 0x3b, 0x73,
        0x65, 0x71, 0x75, 0x65, 0x6e, 0x74, 0x69, 0x61, 0x6c, 0x2f, 0x63, 0x6f,
        0x6e, 0x76, 0x32, 0x64, 0x2f, 0x42, 0x69, 0x61, 0x73, 0x41, 0x64, 0x64,
        0x3b, 0x73, 0x65, 0x71, 0x75, 0x65, 0x6e, 0x74, 0x69, 0x61, 0x6c, 0x2f,
        0x63, 0x6f, 0x6e, 0x76, 0x32, 0x64, 0x2f, 0x43, 0x6f, 0x6e, 0x76, 0x32,
        0x44, 0x3b, 0x63, 0x6f, 0x6e, 0x76, 0x32, 0x64, 0x2f, 0x62, 0x69, 0x61,
        0x73, 0x00, 0x00, 0x00, 0x88, 0xb9, 0xff, 0xff, 0x6e, 0xba, 0xff, 0xff,
        0x04, 0x00, 0x00, 0x00, 0x00, 0x08, 0x00, 0x00, 0x6b, 0x38, 0x4c, 0xbe,
        0x62, 0x07, 0x53, 0x3d, 0xe8, 0xa7, 0xae, 0xbd, 0x76, 0xae, 0x1e, 0xbd,
        0x9a, 0x49, 0xc1, 0xbc, 0x29, 0x5c, 0xcd, 0x3d, 0x23, 0xcd, 0x8e, 0x3e,
        0x3e, 0x18, 0xf3, 0x3d, 0xb8, 0x39, 0x23, 0xbe, 0x12, 0x98, 0xe1, 0xbd,
        0x09, 0x2d, 0x7e, 0xbd, 0x89, 0x5d, 0x46, 0x3e, 0x75, 0xe6, 0x81, 0x3d,
        0xa6, 0x1e, 0x12, 0xbd, 0x7f, 0x49, 0x5a, 0xbe, 0x33, 0xfe, 0xc0, 0x3e,
        0x4a, 0xab, 0xc1, 0xbe, 0x15, 0x14, 0x5d, 0xbe, 0x80, 0x0a, 0x25, 0xbe,
        0x38, 0xd9, 0xe7, 0xbc, 0xea, 0x7a, 0xab, 0xbd, 0xa2, 0x9d, 0xbc, 0xbe,
        0xa3, 0x69, 0x17, 0xbd, 0x26, 0x5b, 0x16, 0xbe, 0xc6, 0xca, 0x1a, 0xbe,
        0xfc, 0x0e, 0x87, 0xbe, 0xb4, 0xf2, 0x24, 0xbc, 0xad, 0x7c, 0x36, 0xbe,
        0xdf, 0x97, 0x18, 0xbe, 0x02, 0xce, 0x18, 0x3e, 0x4b, 0xc8, 0x85, 0xbe,
        0x9d, 0xb1, 0x11, 0x3d, 0xb8, 0xd5, 0x12, 0x3f, 0x58, 0x53, 0xeb, 0x3d,
        0x26, 0x95, 0x43, 0x3e, 0x92, 0x72, 0x67, 0x3d, 0xe4, 0xc6, 0x1b, 0xbe,
        0x45, 0x33, 0x01, 0xbe, 0x99, 0xbf, 0x96, 0x3e, 0xa6, 0xf3, 0xcf, 0x3e,
        0x11, 0xe7, 0x05, 0x3d, 0x81, 0xa2, 0x60, 0x3d, 0x3c, 0x00, 0x2f, 0x3e,
        0x01, 0x53, 0x43, 0xbd, 0x30, 0x8c, 0x85, 0x3e, 0x25, 0x7b, 0xda, 0xbd,
        0x10, 0xb6, 0xe5, 0xbd, 0x11, 0x02, 0x9e, 0xbb, 0x59, 0xf5, 0xe9, 0xbd,
        0xf5, 0x7f, 0xc2, 0xbe, 0x4e, 0x7e, 0xd3, 0xbd, 0x03, 0xe6, 0x80, 0xbe,
        0x35, 0x35, 0x34, 0xbc, 0x36, 0xd7, 0xaa, 0xbd, 0x73, 0xd3, 0xfa, 0xbe,
        0x1a, 0xcd, 0x16, 0xbe, 0x1f, 0x63, 0xac, 0xbe, 0xd3, 0x40, 0x13, 0xbf,
        0x29, 0x85, 0x24, 0xbe, 0x2e, 0xad, 0xc3, 0xbe, 0x41, 0x02, 0x4c, 0xbe,
        0xdf, 0xe4, 0xe1, 0xbe, 0x2f, 0x5c, 0x51, 0xbf, 0x5d, 0x00, 0x7a, 0xbe,
        0x23, 0xb5, 0x38, 0xbe, 0x39, 0xb7, 0x4d, 0x3d, 0xbf, 0xdb, 0x6d, 0xbb,
        0x5f, 0x12, 0x7a, 0xbc, 0xeb, 0x6c, 0x62, 0x3d, 0x03, 0xd0, 0xa4, 0x3c,
        0x14, 0xeb, 0xa6, 0xbd, 0xfd, 0xae, 0x4b, 0xbc, 0x82, 0x04, 0x17, 0x3e,
        0xa7, 0xa1, 0x54, 0x3d, 0x33, 0xd8, 0xf1, 0xbc, 0x25, 0xb9, 0x33, 0xbe,
        0x35, 0x6a, 0x8a, 0xbd, 0xcb, 0xb4, 0x61, 0xbe, 0x54, 0x76, 0x94, 0x3e,
        0x51, 0xa2, 0x88, 0x3e, 0x5b, 0xb6, 0xbd, 0x3d, 0xca, 0xe0, 0x69, 0xbe,
        0x0b, 0x37, 0x6e, 0xbb, 0xcc, 0x6f, 0x9b, 0x3c, 0x06, 0x76, 0x3e, 0x3d,
        0x32, 0xee, 0x1c, 0xbe, 0xed, 0xc6, 0x15, 0xbe, 0x07, 0xda, 0x2d, 0x3e,
        0x33, 0xd9, 0x88, 0x3e, 0x69, 0x8d, 0xcd, 0xbc, 0xd3, 0x73, 0x88, 0x3e,
        0xd9, 0xdc, 0xf4, 0xbd, 0xb5, 0x72, 0x97, 0xbe, 0xcf, 0x11, 0x3c, 0xbc,
        0x7a, 0x4c, 0x3b, 0x3e, 0xec, 0xeb, 0x76, 0x3e, 0x17, 0xbf, 0xf1, 0xbe,
        0x9d, 0xe5, 0x0a, 0xbf, 0x2f, 0x12, 0x6b, 0x3e, 0x4e, 0x24, 0x10, 0xbf,
        0x5d, 0xb0, 0x84, 0xbe, 0xf5, 0x28, 0x84, 0xbe, 0xdd, 0x75, 0x68, 0xbe,
        0x50, 0xe1, 0xbc, 0xbd, 0xb0, 0x46, 0x84, 0x3d, 0x40, 0x45, 0x33, 0xbe,
        0x50, 0x27, 0x0e, 0x3e, 0x23, 0x4d, 0x8a, 0xbe, 0xb2, 0x1d, 0x88, 0xbe,
        0x48, 0x25, 0x2d, 0xbd, 0x22, 0x0d, 0x39, 0xbe, 0x29, 0x2a, 0x82, 0x3e,
        0x76, 0xd0, 0x06, 0xbf, 0x1a, 0x1e, 0xcd, 0xbd, 0xd1, 0x8c, 0x46, 0x3e,
        0x4b, 0xf2, 0xc6, 0xbe, 0x04, 0xad, 0x84, 0xbe, 0xab, 0xf1, 0x71, 0xbe,
        0x4d, 0x6c, 0x3b, 0xbe, 0x54, 0xc2, 0xcb, 0x3c, 0x45, 0x22, 0xa2, 0xbe,
        0x53, 0x14, 0xd7, 0xbe, 0x72, 0x93, 0xb2, 0x3e, 0x44, 0x3a, 0x27, 0xbe,
        0x08, 0xd0, 0x80, 0xbe, 0xd0, 0xc8, 0x73, 0xbd, 0x28, 0xc5, 0xbf, 0x3d,
        0x81, 0x33, 0xe5, 0x3d, 0x9e, 0x44, 0x42, 0x3e, 0x4c, 0xfa, 0x92, 0x3d,
        0x94, 0x00, 0x07, 0x3e, 0xb8, 0x17, 0xb4, 0xbd, 0x4a, 0x67, 0xa7, 0x3d,
        0x33, 0x7a, 0x35, 0x3e, 0x73, 0xab, 0xb8, 0xbc, 0x2b, 0x28, 0xe2, 0x3d,
        0x46, 0x75, 0xa3, 0xbc, 0xcb, 0x3d, 0x9b, 0xbe, 0x49, 0x36, 0x7e, 0xbd,
        0x28, 0x95, 0xfa, 0xbd, 0xa8, 0xde, 0x8a, 0x3d, 0xdc, 0x2c, 0xe5, 0x3d,
        0x8d, 0x6f, 0x61, 0x3e, 0xf1, 0x6a, 0x05, 0xbe, 0x5d, 0x6f, 0x99, 0xbc,
        0xbc, 0x54, 0x70, 0xbe, 0x67, 0x71, 0xc4, 0x3d, 0x10, 0x09, 0x81, 0xbd,
        0xcb, 0xc8, 0x0e, 0x3e, 0x3d, 0x77, 0x35, 0xbd, 0x78, 0xbc, 0xfb, 0x3c,
        0x4c, 0xe1, 0x1f, 0x3d, 0xcb, 0x07, 0x9b, 0x3d, 0x1c, 0x97, 0xc1, 0xbd,
        0x39, 0x5a, 0x95, 0x3e, 0xba, 0xcb, 0x59, 0x3e, 0x62, 0x37, 0x83, 0xbd,
        0x6b, 0xcd, 0xe7, 0xbc, 0x93, 0x92, 0xa1, 0x3e, 0xd2, 0xfe, 0xaa, 0xbd,
        0x3e, 0xba, 0x41, 0xbe, 0xe4, 0xd8, 0x84, 0xbd, 0xf9, 0xb3, 0xf6, 0x3d,
        0x26, 0x19, 0xf2, 0xbe, 0x6d, 0xad, 0xa6, 0xbe, 0x6c, 0x2f, 0x97, 0xbe,
        0x77, 0x6f, 0xb8, 0xbd, 0xda, 0x4b, 0x9b, 0x3e, 0x61, 0x2c, 0x1e, 0xba,
        0xc7, 0x09, 0xc8, 0xbb, 0x73, 0x9c, 0x44, 0x3e, 0x4b, 0x6d, 0xaa, 0xbe,
        0x54, 0x65, 0x48, 0x3e, 0x29, 0x77, 0x84, 0xbe, 0xa7, 0x45, 0x6e, 0xbe,
        0x96, 0x10, 0x93, 0x3d, 0x95, 0x68, 0x98, 0xbe, 0x91, 0x16, 0x4d, 0x3e,
        0xf7, 0xfa, 0x3b, 0xbd, 0x6f, 0x30, 0xc7, 0x3d, 0x3f, 0x01, 0x9c, 0x3e,
        0xbb, 0xa0, 0x98, 0xbd, 0x0d, 0x2f, 0xeb, 0xbd, 0xd4, 0x32, 0x13, 0xbf,
        0xa5, 0x01, 0xb1, 0x3d, 0x9a, 0x14, 0x6b, 0xbe, 0xa7, 0x07, 0xca, 0xbe,
        0x1b, 0xac, 0x21, 0x3e, 0x5b, 0x71, 0x62, 0x3e, 0xfe, 0xe6, 0x97, 0x3e,
        0xb0, 0xb7, 0x09, 0x3e, 0x57, 0xb6, 0xd9, 0xbe, 0x5e, 0xf0, 0x33, 0xbc,
        0x43, 0xc8, 0x71, 0xbd, 0xcb, 0xef, 0x44, 0x3e, 0xbd, 0x15, 0x89, 0x3e,
        0x84, 0x21, 0x0d, 0xbe, 0x7f, 0x9e, 0x4a, 0xbe, 0xee, 0x14, 0x55, 0x3d,
        0x86, 0xd8, 0xe1, 0x3e, 0x54, 0xfd, 0xbc, 0x3e, 0xc5, 0x93, 0xfb, 0x3d,
        0xb4, 0xf8, 0xd1, 0x3d, 0x1c, 0xc0, 0x8b, 0xbd, 0x8a, 0x79, 0x8f, 0xbe,
        0x6a, 0x92, 0x8d, 0xbe, 0xc8, 0xfc, 0x07, 0x3e, 0x02, 0x7d, 0x29, 0x3e,
        0x22, 0x7f, 0x98, 0xbd, 0x3b, 0x19, 0x7f, 0xbd, 0x1f, 0x4e, 0xc9, 0x3d,
        0x42, 0x7d, 0xb2, 0xbe, 0x8f, 0x5f, 0x67, 0xbd, 0x25, 0xc7, 0x58, 0xbd,
        0x10, 0x4a, 0xa7, 0xbe, 0xaa, 0xb9, 0x51, 0xbd, 0x2c, 0x8e, 0x2a, 0xbe,
        0xdc, 0xf5, 0x95, 0xbd, 0x1e, 0xad, 0x4e, 0x3e, 0xca, 0xe4, 0x94, 0xbe,
        0xc2, 0x4a, 0xcd, 0xbd, 0x7b, 0x5d, 0x5e, 0x3d, 0xac, 0x93, 0x03, 0xbf,
        0xee, 0x51, 0x1c, 0xbe, 0x78, 0xa8, 0xd0, 0x3d, 0xce, 0xb6, 0xc0, 0x3e,
        0x67, 0x4f, 0x1a, 0xbe, 0x72, 0x14, 0xa3, 0xbd, 0xf2, 0x1c, 0x98, 0x3c,
        0x49, 0x6d, 0x36, 0x3d, 0xd8, 0xe2, 0xb7, 0x3e, 0x37, 0xe2, 0x04, 0xbe,
        0xa7, 0xe7, 0x1c, 0x3c, 0x47, 0x67, 0x3e, 0x3e, 0xe5, 0x56, 0x5c, 0x3d,
        0xe0, 0x06, 0xb0, 0xbd, 0xf2, 0x12, 0x9d, 0xbd, 0x98, 0x80, 0xf0, 0x3c,
        0x01, 0xa6, 0x1a, 0xbd, 0x50, 0xc7, 0x8a, 0xbd, 0xe6, 0x99, 0x09, 0x3d,
        0x3c, 0x08, 0x9b, 0x3e, 0xc5, 0xb0, 0x8e, 0xbe, 0xb8, 0x8c, 0xad, 0x3d,
        0x62, 0xea, 0x1b, 0xbe, 0xe7, 0xaf, 0x88, 0x3d, 0xe4, 0x01, 0x6b, 0x3c,
        0x4c, 0x83, 0x34, 0xbd, 0x15, 0x2d, 0x98, 0x3c, 0xc8, 0x5c, 0x97, 0x3e,
        0x77, 0xdb, 0x2e, 0xbd, 0x55, 0x59, 0xd3, 0x3c, 0xa0, 0xff, 0xc4, 0xbd,
        0x21, 0xf0, 0xe4, 0xbd, 0x69, 0xef, 0x72, 0x3e, 0xd7, 0x5f, 0xfa, 0x3d,
        0x38, 0x97, 0x62, 0xbe, 0xe5, 0x0f, 0xb8, 0xbe, 0xc0, 0x62, 0x96, 0xbe,
        0x1b, 0xb5, 0x93, 0xbc, 0x94, 0x50, 0xb5, 0xbc, 0xda, 0x99, 0x43, 0x3e,
        0xe8, 0xa5, 0xe7, 0x3d, 0x06, 0x82, 0x8d, 0xbe, 0xb1, 0x04, 0x90, 0x3d,
        0xdf, 0x3a, 0x97, 0xbe, 0xdf, 0xb4, 0x9e, 0xbe, 0xa4, 0x4e, 0xa3, 0xbd,
        0xed, 0xd5, 0x81, 0xbe, 0x59, 0x01, 0xf1, 0x3c, 0xb7, 0xa5, 0x5a, 0x3e,
        0x40, 0x74, 0xaf, 0xbe, 0xee, 0xcd, 0x78, 0x3e, 0x38, 0xa3, 0xd5, 0xbb,
        0xba, 0xb8, 0xcd, 0xbd, 0x79, 0x0c, 0xba, 0xbd, 0x4c, 0xd2, 0x1e, 0xbf,
        0xfc, 0x6a, 0x04, 0x3e, 0x86, 0xd8, 0x86, 0x3e, 0xab, 0x5e, 0x9b, 0x3e,
        0xf9, 0x3d, 0x86, 0x3e, 0x85, 0x7e, 0x22, 0x3d, 0xdb, 0xc1, 0x05, 0x3f,
        0xe6, 0x68, 0x8a, 0xbe, 0xe6, 0x47, 0xb8, 0xbe, 0xc4, 0x1a, 0x8e, 0xbe,
        0xff, 0x22, 0x75, 0xbe, 0x8c, 0xa0, 0x8d, 0x3e, 0x50, 0x87, 0x0f, 0xbf,
        0x09, 0x1f, 0x45, 0xbe, 0xa5, 0x41, 0x96, 0xbe, 0xc3, 0x99, 0xec, 0xbe,
        0xf5, 0x7f, 0xdd, 0xbe, 0x1b, 0x1c, 0x70, 0xbe, 0x30, 0x02, 0x42, 0xbe,
        0x06, 0xc2, 0xa8, 0xbe, 0xa8, 0x68, 0x6a, 0xbe, 0xc1, 0x9b, 0xa8, 0x3e,
        0x52, 0x15, 0x42, 0xbd, 0x7d, 0xee, 0xa2, 0x3e, 0xb3, 0xf7, 0xcd, 0xbd,
        0x1f, 0x34, 0x0c, 0xbe, 0x6d, 0x07, 0xb1, 0x3d, 0xe6, 0x4d, 0x17, 0xbe,
        0xe9, 0xfe, 0x0d, 0xbe, 0x35, 0x91, 0xa4, 0x3e, 0x13, 0x10, 0xb5, 0xbd,
        0xb0, 0x30, 0x00, 0xbe, 0x15, 0xee, 0x3f, 0xbd, 0xbe, 0x3c, 0x8e, 0x3d,
        0x4a, 0xcd, 0xa0, 0xbd, 0x6d, 0xea, 0x66, 0xbe, 0xb3, 0xf5, 0xcd, 0xbd,
        0x39, 0xdf, 0x3f, 0x3c, 0x41, 0xf3, 0x8a, 0xbe, 0x7f, 0x0f, 0x0d, 0xbe,
        0xf9, 0x48, 0xcb, 0xbc, 0xb4, 0x9a, 0xb4, 0xbc, 0x5d, 0xef, 0x98, 0xbc,
        0xed, 0x17, 0x18, 0xbb, 0xa8, 0xe7, 0x96, 0xbe, 0x15, 0x54, 0x09, 0xbe,
        0x93, 0x63, 0x27, 0xbe, 0x97, 0x47, 0x46, 0xbd, 0x84, 0x37, 0x15, 0x3f,
        0xbd, 0x7f, 0xe2, 0x3d, 0xb0, 0xb2, 0x8b, 0xbe, 0x52, 0x0f, 0xde, 0xbe,
        0x01, 0xcd, 0x05, 0x3e, 0x2f, 0x93, 0x8c, 0xbe, 0xf1, 0x4b, 0x0d, 0xbe,
        0x1b, 0xc7, 0xe7, 0xbc, 0x27, 0xbc, 0x29, 0x3d, 0x67, 0x97, 0x18, 0x3e,
        0x6a, 0x1b, 0xd9, 0x3d, 0x14, 0x8d, 0xb1, 0xbd, 0xf3, 0x33, 0xa8, 0x3e,
        0xd3, 0xa9, 0x25, 0xbe, 0x76, 0xcb, 0x50, 0x3c, 0xe7, 0xc1, 0x01, 0xbe,
        0x9a, 0x77, 0xe2, 0xbe, 0xe6, 0x4c, 0x95, 0xbd, 0x7d, 0x4c, 0x3c, 0x3e,
        0xcd, 0xdf, 0xbe, 0x3e, 0x73, 0xb4, 0x53, 0xbd, 0xf1, 0x6f, 0xb2, 0x3d,
        0xe6, 0x65, 0x90, 0x3e, 0xf1, 0x53, 0x8b, 0xbe, 0x10, 0x1e, 0xb9, 0xbe,
        0x5b, 0x82, 0x8b, 0xbe, 0xcc, 0x1a, 0xb4, 0xbd, 0x90, 0xc8, 0x09, 0x3e,
        0xf6, 0xa7, 0xb3, 0xbe, 0xdb, 0x50, 0x8b, 0xbe, 0x60, 0xa1, 0xc3, 0xbd,
        0x3e, 0x3b, 0xf1, 0xbe, 0xfd, 0xf1, 0x49, 0xbd, 0x80, 0x66, 0x9e, 0xbe,
        0xca, 0x43, 0x22, 0xbe, 0xa4, 0xed, 0x6a, 0xbe, 0x37, 0xa6, 0x9a, 0x3d,
        0x29, 0x54, 0x1d, 0x3d, 0x5a, 0xfd, 0x8f, 0xbe, 0x2b, 0x83, 0x83, 0x3e,
        0x0b, 0xa3, 0x5c, 0x3d, 0x77, 0xc1, 0x25, 0xbe, 0xf2, 0x7f, 0xec, 0xbd,
        0x91, 0x3f, 0xed, 0xbd, 0xa9, 0x16, 0x6c, 0xbe, 0x7d, 0x70, 0x18, 0x3e,
        0x2c, 0x1a, 0xf5, 0xbd, 0x77, 0xbd, 0x7f, 0x3d, 0xb5, 0x76, 0x26, 0xbd,
        0x91, 0xc3, 0x59, 0x3e, 0x61, 0x0e, 0x84, 0x3e, 0x72, 0xff, 0xa5, 0x3d,
        0xd5, 0x09, 0x8a, 0xbd, 0x33, 0x5c, 0x23, 0x3e, 0xbc, 0xdb, 0x33, 0xbe,
        0xb3, 0x44, 0x97, 0xbe, 0x19, 0xf2, 0xeb, 0xbd, 0x7a, 0x9e, 0xeb, 0x3d,
        0x79, 0x70, 0x38, 0x3e, 0xb3, 0xe9, 0xeb, 0xbd, 0x7c, 0x75, 0xde, 0xbd,
        0x9d, 0xd3, 0xbb, 0x3d, 0x7e, 0x4f, 0x4c, 0xbd, 0xd9, 0x0d, 0xdf, 0x3c,
        0xfa, 0xfa, 0x04, 0xbe, 0x36, 0xcc, 0x8d, 0xbe, 0xe5, 0x26, 0x0d, 0xbe,
        0xdc, 0xca, 0x84, 0xbe, 0xf7, 0x10, 0x75, 0xbe, 0xd4, 0x21, 0x05, 0xbe,
        0xa7, 0xa8, 0x4d, 0xbe, 0xe1, 0x5a, 0xaf, 0x3d, 0xeb, 0x77, 0x7b, 0xbe,
        0xf4, 0xea, 0x3b, 0xbc, 0xe8, 0x2c, 0xcc, 0x3d, 0xb0, 0x49, 0x7e, 0xbe,
        0x42, 0xb5, 0x6a, 0xbe, 0x90, 0x0e, 0x57, 0x3c, 0xbb, 0x6f, 0x46, 0x3c,
        0x24, 0x8e, 0x1a, 0x3d, 0x1d, 0x53, 0xa8, 0xbd, 0x19, 0x58, 0x43, 0xbd,
        0x01, 0x0e, 0xf9, 0xbc, 0x5c, 0x4a, 0x80, 0xbd, 0xfa, 0x34, 0xd8, 0xbd,
        0xe6, 0x21, 0x6a, 0xbd, 0xfa, 0xfa, 0xbe, 0xbd, 0xb4, 0x88, 0xa1, 0xbe,
        0xe9, 0x0c, 0x04, 0x3d, 0xd9, 0x50, 0x40, 0xbe, 0x2f, 0x5c, 0x2f, 0x3e,
        0xb3, 0xe4, 0xce, 0xbd, 0xb6, 0xb1, 0xbe, 0x3e, 0x63, 0x66, 0x64, 0x3e,
        0x83, 0x1b, 0x18, 0x3e, 0x2e, 0xea, 0x88, 0xbe, 0x04, 0x6a, 0x45, 0x3d,
        0xb5, 0xac, 0x78, 0xbe, 0x4c, 0xf8, 0xe1, 0xbc, 0x14, 0xe8, 0x8b, 0x3e,
        0xd5, 0x96, 0xe5, 0xbe, 0x78, 0xf1, 0x9c, 0x3d, 0xe2, 0x41, 0x3a, 0xbe,
        0x90, 0x9c, 0x24, 0xbe, 0x9d, 0x0d, 0x9e, 0x3e, 0x35, 0x16, 0x0d, 0x3d,
        0x75, 0x42, 0xcc, 0xbe, 0xec, 0xd1, 0x30, 0xbe, 0xe5, 0x18, 0xc4, 0x3d,
        0x12, 0x9f, 0xa2, 0xbe, 0x53, 0xc3, 0x69, 0xbd, 0x47, 0x20, 0xa7, 0x3d,
        0x0a, 0x62, 0x55, 0xbe, 0x73, 0x78, 0xd3, 0x3a, 0xcc, 0xa1, 0xdb, 0xbd,
        0xe9, 0xbf, 0xa6, 0xbd, 0xf8, 0x3b, 0x1d, 0xbe, 0x2c, 0xa4, 0x8b, 0xbe,
        0x54, 0x93, 0xd3, 0x3c, 0x4d, 0x4e, 0x80, 0xbe, 0x88, 0xfd, 0xf1, 0xbe,
        0x14, 0x7a, 0x78, 0xbe, 0x61, 0x8e, 0x7f, 0xbe, 0x5a, 0x3c, 0x62, 0xbd,
        0xd1, 0x79, 0x12, 0x3e, 0x76, 0x90, 0x41, 0xbe, 0x3b, 0x36, 0x7e, 0xbb,
        0x94, 0x45, 0xb4, 0x3d, 0x0c, 0x87, 0xe7, 0x3d, 0x10, 0x54, 0x86, 0x3e,
        0x04, 0x10, 0xfc, 0xbc, 0x39, 0x79, 0xd0, 0x3d, 0x8b, 0x3b, 0x89, 0x3d,
        0xe9, 0x5e, 0x89, 0xbe, 0x4b, 0xbc, 0x46, 0xbe, 0xc3, 0xe6, 0x9e, 0xbd,
        0xc4, 0xea, 0x25, 0xbe, 0xe3, 0x73, 0xf6, 0x3d, 0x9e, 0xdb, 0x5e, 0x3d,
        0xd5, 0x49, 0x46, 0x3e, 0x7b, 0x9d, 0xb7, 0xbe, 0xb3, 0x8c, 0xa1, 0xbe,
        0x3a, 0xa9, 0x6f, 0x3c, 0x96, 0x8f, 0x5d, 0xbd, 0x47, 0x72, 0xce, 0xbd,
        0x1a, 0x18, 0x5c, 0x3d, 0xc5, 0xa3, 0xe6, 0xbd, 0x6b, 0x2b, 0x60, 0x3e,
        0x5e, 0x92, 0x3d, 0xbe, 0xdf, 0xa1, 0x81, 0xbd, 0x1d, 0x9d, 0x0a, 0xbe,
        0xf3, 0x22, 0x17, 0xbe, 0xaf, 0x01, 0xb7, 0xbe, 0xcd, 0x82, 0xb7, 0xbd,
        0x89, 0x50, 0x57, 0xbe, 0xdd, 0x84, 0x87, 0x3c, 0x26, 0x9a, 0x83, 0xbc,
        0x09, 0x40, 0xf6, 0x3d, 0xd8, 0xf3, 0x13, 0xbe, 0xcc, 0xb4, 0x6a, 0xbe,
        0xec, 0x98, 0x54, 0x3d, 0xe1, 0x47, 0x9d, 0xbe, 0x84, 0x83, 0x73, 0xbd,
        0xaa, 0x4f, 0xc6, 0x3c, 0x27, 0x96, 0x99, 0xbd, 0xcd, 0x24, 0xa6, 0x3e,
        0x1b, 0x84, 0x32, 0xbe, 0x21, 0xe7, 0x5c, 0x3e, 0x43, 0x5b, 0x96, 0x3d,
        0x15, 0x3c, 0x94, 0x3d, 0x9f, 0xb9, 0x04, 0x3e, 0xf2, 0xdb, 0x2c, 0xbd,
        0xcf, 0x93, 0x73, 0xbd, 0xf2, 0x32, 0xe8, 0x3e, 0x19, 0x20, 0x4c, 0xbe,
        0xf0, 0xff, 0x1b, 0xbd, 0xde, 0x0e, 0x8c, 0xbd, 0xe7, 0x43, 0x14, 0xbd,
        0x2a, 0x34, 0xa4, 0xbc, 0xf6, 0x48, 0xe2, 0xba, 0xfd, 0xc8, 0xb4, 0x3c,
        0x1a, 0xa5, 0x83, 0x3e, 0xe4, 0x15, 0x0c, 0xbe, 0x54, 0xe3, 0xa8, 0x3d,
        0x67, 0x67, 0x29, 0xbc, 0x33, 0x49, 0xce, 0xbd, 0x07, 0x79, 0x45, 0x3e,
        0x1b, 0x6d, 0xdd, 0xbd, 0x56, 0xc2, 0xff, 0xff, 0x10, 0x00, 0x00, 0x00,
        0x0a, 0x00, 0x00, 0x00, 0x1c, 0x00, 0x00, 0x00, 0x38, 0x00, 0x00, 0x00,
        0x04, 0x00, 0x00, 0x00, 0x10, 0x00, 0x00, 0x00, 0x04, 0x00, 0x00, 0x00,
        0x01, 0x00, 0x00, 0x00, 0x08, 0x00, 0x00, 0x00, 0x1a, 0x00, 0x00, 0x00,
        0x73, 0x65, 0x71, 0x75, 0x65, 0x6e, 0x74, 0x69, 0x61, 0x6c, 0x2f, 0x63,
        0x6f, 0x6e, 0x76, 0x32, 0x64, 0x5f, 0x31, 0x2f, 0x43, 0x6f, 0x6e, 0x76,
        0x32, 0x44, 0x00, 0x00, 0xe0, 0xc1, 0xff, 0xff, 0xc6, 0xc2, 0xff, 0xff,
        0x04, 0x00, 0x00, 0x00, 0x80, 0x01, 0x00, 0x00, 0x3f, 0x8e, 0xbd, 0xbd,
        0xd6, 0x0e, 0xa2, 0xbe, 0x4c, 0x71, 0xac, 0x3d, 0x9e, 0x24, 0xcd, 0x3c,
        0x2c, 0xc4, 0xce, 0xbe, 0x4f, 0x42, 0x4b, 0xbc, 0x68, 0x67, 0x07, 0x3d,
        0x3e, 0x94, 0x0c, 0x3e, 0xfa, 0x41, 0x3c, 0xbd, 0x82, 0x97, 0xa1, 0x3c,
        0x48, 0x8d, 0x0f, 0x3f, 0xb6, 0x3f, 0x50, 0xbd, 0x58, 0xe6, 0x89, 0x3e,
        0x61, 0x39, 0x01, 0x3c, 0x81, 0xed, 0x16, 0xbd, 0x51, 0xb6, 0x00, 0x3e,
        0xd3, 0x25, 0x3d, 0xbe, 0x8d, 0xef, 0x8c, 0x3c, 0x2f, 0xa9, 0x4c, 0xbe,
        0xee, 0x2b, 0xe4, 0x3e, 0x6d, 0xe5, 0xfd, 0x3d, 0x38, 0xf7, 0x5b, 0x3e,
        0xba, 0x20, 0x42, 0xbe, 0x01, 0x69, 0x09, 0xbe, 0x8c, 0xe5, 0x95, 0x3d,
        0x88, 0x81, 0x9e, 0x3d, 0x4e, 0x70, 0xb8, 0xbc, 0x39, 0x76, 0x25, 0x3e,
        0xfa, 0x83, 0x31, 0x3e, 0x8b, 0x3c, 0x28, 0x3d, 0xa3, 0x63, 0x1a, 0x3e,
        0x79, 0x38, 0x9a, 0x3d, 0xf4, 0x61, 0x0a, 0x3c, 0xef, 0xaa, 0xa9, 0x3d,
        0xad, 0x01, 0x34, 0x3e, 0x48, 0xdb, 0xc3, 0x3d, 0x9a, 0x31, 0xa1, 0xbe,
        0x41, 0xe6, 0x37, 0x3e, 0x59, 0x4b, 0xc9, 0x3d, 0x4a, 0x49, 0xb1, 0x3e,
        0x05, 0x16, 0x6a, 0xbe, 0x1e, 0x0f, 0x12, 0xbe, 0x90, 0xe8, 0x38, 0xbd,
        0x0f, 0xde, 0x30, 0xbe, 0xd4, 0x5f, 0xc1, 0x3d, 0xc9, 0xe1, 0xe2, 0xbb,
        0x19, 0x0d, 0x67, 0xbd, 0x16, 0x31, 0x15, 0xbd, 0x8e, 0x59, 0xaa, 0x3d,
        0x9d, 0x16, 0xdb, 0x3d, 0x7f, 0x3e, 0x81, 0x3e, 0x44, 0xb9, 0x84, 0xbd,
        0x13, 0x2b, 0x49, 0x3e, 0xea, 0x8f, 0x34, 0x3e, 0x58, 0x27, 0x30, 0x3e,
        0xf9, 0x1d, 0x06, 0xbe, 0x78, 0x97, 0x3d, 0xbe, 0x74, 0x4d, 0xfd, 0xbd,
        0xbb, 0x71, 0x98, 0xbe, 0x2d, 0x69, 0xc2, 0xbe, 0x7a, 0xf9, 0x5c, 0x3e,
        0x11, 0x76, 0xc1, 0xbc, 0xa1, 0x13, 0xfa, 0x3b, 0x8d, 0x04, 0x9b, 0xbd,
        0xbc, 0x61, 0xab, 0xbc, 0x8f, 0xad, 0x14, 0xbd, 0x55, 0x86, 0xdf, 0xbc,
        0x22, 0x7c, 0x39, 0xbd, 0x82, 0x25, 0x78, 0xbe, 0x19, 0x13, 0xba, 0xbc,
        0x5b, 0x06, 0xc9, 0xbd, 0xeb, 0xa8, 0x07, 0x3c, 0x32, 0xa8, 0xf6, 0xbc,
        0xce, 0xfe, 0x61, 0xbd, 0xaf, 0x07, 0xe0, 0xbd, 0x6b, 0x28, 0x14, 0x3d,
        0x35, 0x1f, 0x0a, 0x3d, 0x6a, 0x93, 0x17, 0x3e, 0x98, 0x0b, 0xd4, 0x3d,
        0x44, 0x93, 0x76, 0xbc, 0x7f, 0x00, 0x80, 0xbe, 0xf1, 0x70, 0x8b, 0x3d,
        0xc9, 0x3f, 0x0f, 0xbd, 0x4f, 0xbc, 0x37, 0x3e, 0x79, 0x37, 0x3f, 0xbd,
        0xdc, 0xf5, 0x75, 0xbe, 0x47, 0x6a, 0x95, 0xbe, 0xd4, 0xc9, 0x69, 0xbd,
        0x6d, 0xf8, 0x84, 0xbe, 0xbb, 0x16, 0x33, 0x3d, 0xaf, 0xb1, 0x47, 0x3e,
        0x96, 0xff, 0xb7, 0x3e, 0x25, 0x6d, 0x40, 0x3e, 0x66, 0xe0, 0x04, 0x3e,
        0x69, 0x86, 0x93, 0x3e, 0x29, 0x29, 0x20, 0x3e, 0x2e, 0xc4, 0xff, 0xff,
        0x10, 0x00, 0x00, 0x00, 0x09, 0x00, 0x00, 0x00, 0x1c, 0x00, 0x00, 0x00,
        0x38, 0x00, 0x00, 0x00, 0x04, 0x00, 0x00, 0x00, 0x08, 0x00, 0x00, 0x00,
        0x04, 0x00, 0x00, 0x00, 0x03, 0x00, 0x00, 0x00, 0x01, 0x00, 0x00, 0x00,
        0x18, 0x00, 0x00, 0x00, 0x73, 0x65, 0x71, 0x75, 0x65, 0x6e, 0x74, 0x69,
        0x61, 0x6c, 0x2f, 0x63, 0x6f, 0x6e, 0x76, 0x32, 0x64, 0x2f, 0x43, 0x6f,
        0x6e, 0x76, 0x32, 0x44, 0x00, 0x00, 0x00, 0x00, 0xb8, 0xc3, 0xff, 0xff,
        0x9e, 0xc4, 0xff, 0xff, 0x04, 0x00, 0x00, 0x00, 0x00, 0x01, 0x00, 0x00,
        0x46, 0x72, 0x98, 0xbe, 0xb9, 0x07, 0x95, 0x3e, 0xf1, 0x0d, 0xad, 0xbd,
        0xd8, 0x6c, 0xff, 0x3e, 0x35, 0xfa, 0xe1, 0x3e, 0x67, 0xa2, 0xae, 0xbd,
        0x17, 0xb1, 0x0d, 0xbe, 0x94, 0x0c, 0x1c, 0xbf, 0x02, 0x3c, 0xfd, 0xbd,
        0x95, 0x00, 0x9c, 0xbd, 0x4a, 0x1a, 0x89, 0xbe, 0x02, 0x13, 0x89, 0xbe,
        0x63, 0xd8, 0x1c, 0xbd, 0x35, 0x19, 0x8b, 0xbe, 0xcd, 0x40, 0x7a, 0xbe,
        0xc7, 0xbb, 0xad, 0xbb, 0xf1, 0x4b, 0x7c, 0xbe, 0xac, 0x85, 0x5b, 0xbe,
        0x8d, 0x4c, 0x0a, 0xbe, 0xb4, 0x52, 0xfc, 0x3e, 0xfd, 0x36, 0xcc, 0x3e,
        0x93, 0x61, 0x01, 0x3e, 0x0b, 0xb5, 0x3d, 0xbe, 0x4b, 0xab, 0x3f, 0xbe,
        0xb6, 0x77, 0x86, 0xbe, 0x76, 0xd4, 0xbd, 0xbe, 0xa3, 0x69, 0x4c, 0xbe,
        0x4d, 0xb8, 0x6c, 0x3e, 0x55, 0x32, 0x77, 0xbd, 0x4d, 0x2b, 0x82, 0xbe,
        0x02, 0xc1, 0x8a, 0xbe, 0x86, 0xd0, 0xa8, 0x3e, 0x67, 0xc0, 0xec, 0xbe,
        0xf6, 0xc9, 0xb8, 0xbe, 0x59, 0x50, 0xe2, 0xbe, 0xc0, 0x84, 0x44, 0xbe,
        0x70, 0x83, 0x99, 0xbe, 0x6c, 0x9b, 0x72, 0xbe, 0x9f, 0xe6, 0x59, 0x3d,
        0xba, 0xee, 0xcf, 0xbc, 0x8c, 0xb6, 0xed, 0xbe, 0x2b, 0x15, 0x6c, 0x3e,
        0xff, 0x5c, 0x8d, 0x3e, 0xfd, 0xd6, 0x56, 0x3b, 0x1f, 0x03, 0x0b, 0xbf,
        0x11, 0x21, 0x1d, 0xbf, 0xba, 0xa0, 0xf1, 0xbe, 0x08, 0x6b, 0x39, 0x3e,
        0x04, 0x26, 0xaa, 0xbe, 0x6a, 0x02, 0x99, 0xbd, 0xea, 0x86, 0xcf, 0xbe,
        0x3b, 0x89, 0x50, 0xbe, 0x6f, 0x11, 0xc7, 0xbe, 0xac, 0xc1, 0x3a, 0x3d,
        0xc3, 0xc6, 0xdd, 0x3e, 0x28, 0xfd, 0xb1, 0xbe, 0xfd, 0x51, 0xd7, 0xbe,
        0x06, 0xaf, 0x00, 0x3d, 0x88, 0x2f, 0xdd, 0x3d, 0x9d, 0x84, 0x10, 0x3e,
        0x2e, 0x41, 0x06, 0xbf, 0xdd, 0x56, 0xdd, 0xbe, 0xa0, 0x82, 0x09, 0xbf,
        0xef, 0xee, 0xa5, 0x3e, 0x86, 0xc5, 0xff, 0xff, 0x10, 0x00, 0x00, 0x00,
        0x08, 0x00, 0x00, 0x00, 0x14, 0x00, 0x00, 0x00, 0x30, 0x00, 0x00, 0x00,
        0x02, 0x00, 0x00, 0x00, 0x04, 0x00, 0x00, 0x00, 0x10, 0x00, 0x00, 0x00,
        0x19, 0x00, 0x00, 0x00, 0x73, 0x65, 0x71, 0x75, 0x65, 0x6e, 0x74, 0x69,
        0x61, 0x6c, 0x2f, 0x64, 0x65, 0x6e, 0x73, 0x65, 0x5f, 0x31, 0x2f, 0x4d,
        0x61, 0x74, 0x4d, 0x75, 0x6c, 0x00, 0x00, 0x00, 0x08, 0xc5, 0xff, 0xff,
        0xee, 0xc5, 0xff, 0xff, 0x04, 0x00, 0x00, 0x00, 0x00, 0x38, 0x00, 0x00,
        0xba, 0x24, 0xbf, 0xbd, 0xcf, 0xea, 0x9c, 0x3d, 0x16, 0xfc, 0x21, 0xbe,
        0x6a, 0x83, 0xb7, 0x3e, 0xaf, 0xa0, 0x35, 0xbe, 0x4e, 0x74, 0xca, 0x3d,
        0xa1, 0x7b, 0x49, 0xbc, 0x3c, 0xec, 0x02, 0xbe, 0xfd, 0xb7, 0x8d, 0xbd,
        0x74, 0x80, 0x77, 0x3f, 0xd8, 0xcb, 0x02, 0xbe, 0x8c, 0xe8, 0xd3, 0x3c,
        0x91, 0x4a, 0x18, 0x3e, 0xf6, 0xe8, 0x2e, 0xbc, 0x5b, 0x53, 0x4f, 0x3d,
        0x3b, 0x42, 0x76, 0x3c, 0x8f, 0xa6, 0x1f, 0x3e, 0x2b, 0x70, 0xb1, 0xbd,
        0x6f, 0x4f, 0xae, 0xbe, 0xee, 0x45, 0xef, 0x3c, 0x15, 0x98, 0x20, 0xbd,
        0x1f, 0xab, 0xfc, 0x3e, 0x2e, 0xea, 0x32, 0xbe, 0x8b, 0xae, 0x24, 0xbe,
        0xe0, 0x5b, 0x95, 0x3d, 0xf4, 0x4a, 0x8c, 0x3f, 0x7c, 0x29, 0x08, 0xbe,
        0x60, 0x4b, 0x8e, 0x3f, 0x7e, 0xc2, 0xf4, 0xbd, 0x78, 0xb3, 0x28, 0xbe,
        0x24, 0x6d, 0xdd, 0xbd, 0xe3, 0xbf, 0x9f, 0x3e, 0x61, 0xf7, 0x0a, 0xbe,
        0xb3, 0xb8, 0x48, 0x3b, 0xc4, 0x87, 0x8f, 0xbe, 0xe1, 0x76, 0x27, 0xbe,
        0x3c, 0xd4, 0xff, 0xbd, 0x8c, 0x46, 0xe5, 0x3e, 0xce, 0xc5, 0x15, 0xbd,
        0xc5, 0x91, 0x3f, 0xbd, 0x9d, 0x2f, 0x20, 0xbe, 0xb5, 0x7b, 0x77, 0x3f,
        0x6b, 0xd9, 0x59, 0x3e, 0xbe, 0x4c, 0x7a, 0x3f, 0x0d, 0x51, 0x98, 0x3d,
        0xbc, 0x68, 0x27, 0x3c, 0x04, 0x3a, 0xb3, 0xbd, 0xf0, 0x80, 0x14, 0x3e,
        0x72, 0x31, 0x2a, 0xbe, 0x80, 0xf1, 0xc4, 0x3d, 0xbe, 0x29, 0xd5, 0xbd,
        0x30, 0xfd, 0x08, 0xbe, 0xb0, 0x00, 0x8f, 0xbd, 0x37, 0xf7, 0xc0, 0x3d,
        0x7f, 0x45, 0xa0, 0x3d, 0x25, 0x28, 0x7e, 0xbe, 0x39, 0x4b, 0x33, 0xbd,
        0x18, 0xa2, 0x47, 0x3f, 0xbc, 0x47, 0x30, 0xbe, 0x93, 0xcb, 0xd5, 0x3c,
        0xac, 0xdf, 0x32, 0x3d, 0xcf, 0xe5, 0x7d, 0x3b, 0x24, 0x51, 0x2f, 0xbe,
        0x36, 0x4f, 0x83, 0x3e, 0x98, 0x05, 0xc5, 0xbc, 0x08, 0xbe, 0xe4, 0x3d,
        0xed, 0x46, 0x15, 0xbe, 0x8b, 0x44, 0x73, 0xbe, 0x4c, 0xb1, 0x64, 0xbe,
        0x08, 0x32, 0x7c, 0x3d, 0x74, 0x5b, 0x65, 0xbe, 0xa7, 0xf9, 0x9f, 0xbe,
        0x8a, 0x5f, 0x71, 0xbe, 0xd1, 0x73, 0x42, 0x3f, 0x01, 0xb2, 0x71, 0xbd,
        0xb5, 0xed, 0x02, 0x3e, 0x7a, 0xa2, 0x3e, 0xbd, 0xc4, 0x4c, 0x5d, 0x3d,
        0xe3, 0xa4, 0x48, 0xbe, 0xe1, 0xa2, 0x63, 0xbd, 0xbc, 0x6d, 0x83, 0x3d,
        0xac, 0x47, 0x7a, 0x3d, 0x93, 0x45, 0xfe, 0x3c, 0x77, 0x63, 0xec, 0x3c,
        0x53, 0xb7, 0xdd, 0xbd, 0x60, 0x28, 0x8d, 0x3e, 0x75, 0x3e, 0x9a, 0xbd,
        0x00, 0xa3, 0x3f, 0xbe, 0x7d, 0xa9, 0x8c, 0xbd, 0x2e, 0x88, 0x95, 0x3f,
        0x52, 0x18, 0xaf, 0x3b, 0x41, 0x04, 0x10, 0x3d, 0x4f, 0xb5, 0xa6, 0xbb,
        0x39, 0xba, 0x60, 0xbd, 0x12, 0x6b, 0xdf, 0xbd, 0x10, 0x94, 0xb5, 0x3d,
        0xe9, 0xb1, 0xf6, 0x3d, 0x67, 0x6b, 0xa8, 0xbd, 0x7b, 0xbb, 0x47, 0xbd,
        0xe5, 0x4c, 0x0e, 0xbe, 0x00, 0xa6, 0x9e, 0x3c, 0x75, 0x8a, 0x35, 0x3e,
        0x36, 0x77, 0x81, 0xbb, 0x48, 0xe1, 0xf1, 0xbd, 0x45, 0x20, 0x56, 0xbd,
        0x8e, 0xb9, 0x8f, 0x3f, 0x75, 0xf3, 0x02, 0xbe, 0x32, 0x9b, 0xc4, 0x3d,
        0xfa, 0x0d, 0x2b, 0x3e, 0x5c, 0x1d, 0xd6, 0x3d, 0xb0, 0x59, 0xa0, 0xbd,
        0xd0, 0x36, 0x67, 0x3e, 0xcf, 0xe0, 0xa4, 0x3c, 0xff, 0x21, 0x96, 0x3d,
        0x52, 0x25, 0x30, 0xbe, 0x8c, 0x0d, 0xfe, 0xbd, 0x9a, 0x3a, 0x5b, 0xbe,
        0x38, 0x4e, 0x0f, 0x3e, 0x48, 0x27, 0x8f, 0xbd, 0x40, 0xf5, 0x98, 0xbd,
        0x6e, 0x98, 0x98, 0x3d, 0xe4, 0x67, 0x14, 0x3f, 0x15, 0x50, 0xb2, 0x3c,
        0x11, 0x72, 0x71, 0x3e, 0xed, 0x82, 0x11, 0x3e, 0xf4, 0xe4, 0xd2, 0xbd,
        0x60, 0xfc, 0x6c, 0xbd, 0x5c, 0xcb, 0xe5, 0xbc, 0xd4, 0xb0, 0xdb, 0x3d,
        0x72, 0xc7, 0x44, 0xbe, 0x50, 0x82, 0xb7, 0xbd, 0xfb, 0x8e, 0x15, 0x3c,
        0x40, 0x5c, 0x5e, 0x3c, 0xb2, 0x97, 0x32, 0x3e, 0xb3, 0xea, 0x36, 0xbe,
        0xcb, 0xd3, 0xa7, 0x3e, 0x46, 0x94, 0xb0, 0xbd, 0x3e, 0xc7, 0x2f, 0x3e,
        0x63, 0x0c, 0xb5, 0xbd, 0x4e, 0x76, 0xfc, 0xbc, 0xa0, 0x79, 0x09, 0x3e,
        0xa3, 0x02, 0xc5, 0x3d, 0x39, 0x67, 0x32, 0x3c, 0xf3, 0xc4, 0x1f, 0x3e,
        0x4f, 0x76, 0xda, 0xbd, 0x1e, 0xec, 0x66, 0x3e, 0x4c, 0xad, 0x89, 0xbd,
        0xa5, 0x4b, 0x22, 0x3d, 0x38, 0x46, 0x04, 0xbb, 0xa8, 0x87, 0x2e, 0xbe,
        0x28, 0x22, 0x57, 0xbe, 0x34, 0xc3, 0x46, 0xbe, 0xb7, 0xf0, 0xca, 0xbd,
        0xf9, 0x2d, 0x2f, 0x3f, 0xa0, 0x82, 0xfa, 0xbd, 0x3d, 0xed, 0x8e, 0xbc,
        0xb7, 0x7d, 0xa9, 0x3d, 0x80, 0xc0, 0x23, 0xbe, 0xbf, 0xff, 0x48, 0xbe,
        0xbb, 0xa4, 0x5d, 0xbc, 0x4d, 0x66, 0x3f, 0x3d, 0x97, 0xdb, 0x97, 0xbd,
        0x65, 0xdf, 0x8b, 0xbd, 0x17, 0x80, 0x95, 0xbd, 0xfd, 0xab, 0x43, 0x3c,
        0x61, 0x48, 0xe4, 0x3e, 0xaa, 0xff, 0x73, 0xbe, 0x99, 0xa0, 0xaf, 0xbd,
        0x45, 0xad, 0xba, 0x3d, 0x75, 0xc1, 0x65, 0x3f, 0xf6, 0x6e, 0xc6, 0xbd,
        0x48, 0x9e, 0x8f, 0x3d, 0x02, 0xd3, 0x05, 0x3d, 0xd9, 0x03, 0x56, 0x3d,
        0xbf, 0x15, 0x46, 0xbe, 0xff, 0x85, 0xb6, 0x3e, 0x72, 0x16, 0x93, 0x3d,
        0x71, 0xd4, 0x04, 0x3e, 0x63, 0x8d, 0x26, 0xbe, 0x52, 0x1f, 0x88, 0xbc,
        0xbd, 0x14, 0xc2, 0xbd, 0xf5, 0x79, 0x90, 0x3d, 0xbe, 0x09, 0x23, 0xbe,
        0xec, 0xc8, 0x45, 0xbe, 0xf4, 0xf4, 0x03, 0xbe, 0x5a, 0x3d, 0x17, 0x3f,
        0x4f, 0xcf, 0xea, 0xbd, 0x65, 0xc7, 0xda, 0x3e, 0x52, 0xa5, 0xd8, 0x3d,
        0xf2, 0x78, 0x1b, 0xbe, 0x2b, 0x80, 0x81, 0xbd, 0xb2, 0xc7, 0x38, 0xbd,
        0x75, 0xc7, 0x88, 0x3d, 0x05, 0x55, 0xe8, 0x3d, 0x8c, 0x6d, 0xb1, 0x3d,
        0x64, 0xad, 0x1c, 0x3d, 0x50, 0x52, 0xb3, 0xbc, 0xce, 0xed, 0xa0, 0xbd,
        0x1a, 0xec, 0x11, 0xbd, 0x64, 0xca, 0x3f, 0xbd, 0xfe, 0xd2, 0x0f, 0xbd,
        0x51, 0xe8, 0x68, 0x3f, 0xa2, 0x4f, 0x69, 0xbe, 0x37, 0xdc, 0x42, 0x3c,
        0x67, 0x92, 0x7c, 0xb9, 0xf6, 0xa1, 0x93, 0x3d, 0x09, 0x94, 0x84, 0xbc,
        0xea, 0x96, 0x80, 0x3f, 0xd2, 0x3e, 0x02, 0x3e, 0xa5, 0x69, 0x4c, 0xbe,
        0x35, 0x8e, 0x87, 0xbe, 0xfb, 0x4b, 0x10, 0x3d, 0x51, 0xee, 0x23, 0xbe,
        0x81, 0x97, 0x43, 0xbe, 0x76, 0x94, 0x14, 0x3c, 0x00, 0xe0, 0x2f, 0xbe,
        0x88, 0x87, 0x86, 0xbd, 0x7c, 0x90, 0x3f, 0x3f, 0xa5, 0x5d, 0x1a, 0x3d,
        0xec, 0x73, 0x6b, 0x3e, 0xa4, 0xd7, 0x15, 0x3e, 0x01, 0xd6, 0x0b, 0xbc,
        0x04, 0x61, 0x14, 0x3d, 0xe4, 0xeb, 0xe4, 0x3d, 0x28, 0xec, 0x76, 0xbd,
        0x76, 0xcc, 0x18, 0xbe, 0x70, 0x8b, 0x21, 0xbe, 0xd0, 0x7e, 0x6b, 0xbe,
        0xa9, 0x90, 0x29, 0xbe, 0x6c, 0x06, 0x54, 0xbe, 0x18, 0xc6, 0xab, 0xbb,
        0xfc, 0x61, 0x77, 0xbe, 0xac, 0xfb, 0xeb, 0xbd, 0x72, 0x89, 0x34, 0xbe,
        0xba, 0xef, 0xdd, 0xbd, 0x8c, 0x06, 0x14, 0xbe, 0x42, 0x99, 0xf3, 0xbc,
        0xc1, 0x34, 0xc9, 0x3d, 0x80, 0x82, 0x4f, 0xbe, 0x15, 0x1d, 0x59, 0xbe,
        0x13, 0xf8, 0x7d, 0xbc, 0x0f, 0xda, 0x83, 0xbc, 0x98, 0x0c, 0x14, 0xbe,
        0x80, 0x5c, 0x04, 0xbe, 0x9e, 0x61, 0x3a, 0xbe, 0xfc, 0x7f, 0x1a, 0x3b,
        0xa7, 0x99, 0xcf, 0xbd, 0x89, 0xe5, 0x4d, 0xbe, 0x18, 0xb5, 0xc3, 0x3d,
        0x94, 0xaf, 0x8d, 0x3c, 0x91, 0x4d, 0xb6, 0xbd, 0xa8, 0x8a, 0xbf, 0xbd,
        0xaf, 0x1f, 0x17, 0x3e, 0xf1, 0x6a, 0xd3, 0xbd, 0xb3, 0xe8, 0x44, 0xbe,
        0x8a, 0x83, 0xb5, 0xbd, 0xd7, 0x86, 0xd2, 0xbd, 0x39, 0xcf, 0x79, 0x3d,
        0x3e, 0x16, 0x16, 0xbd, 0x3a, 0x75, 0x6a, 0xbe, 0xc4, 0x6b, 0x00, 0xbe,
        0xae, 0x4c, 0xf3, 0x3b, 0xb6, 0xff, 0xe3, 0xbd, 0x65, 0x35, 0x84, 0xbd,
        0x26, 0xfa, 0x8a, 0x3e, 0x64, 0xf8, 0x0e, 0xbe, 0x00, 0x5a, 0x17, 0x3c,
        0x45, 0x5d, 0xd5, 0x3d, 0x6f, 0x68, 0x0a, 0x3e, 0xee, 0x2d, 0xa4, 0xbc,
        0x69, 0x7c, 0x85, 0xbe, 0xb1, 0x23, 0x87, 0xbd, 0xa1, 0x9b, 0xc8, 0xbd,
        0xde, 0x44, 0xb8, 0xbc, 0x74, 0x64, 0x74, 0x3d, 0x06, 0x4f, 0x88, 0xbe,
        0x99, 0x01, 0xa3, 0xbd, 0x18, 0x50, 0x0f, 0x3e, 0x36, 0xb7, 0x16, 0x3e,
        0xe1, 0xab, 0x7b, 0xbc, 0x9c, 0xd8, 0x28, 0x3c, 0x76, 0x74, 0x3c, 0xbe,
        0xfb, 0x33, 0xc0, 0x3c, 0x87, 0xbe, 0x8b, 0x3d, 0x04, 0x2b, 0x1d, 0x3d,
        0xeb, 0x45, 0x53, 0xbd, 0xf9, 0xc5, 0x13, 0x3e, 0x26, 0x9a, 0x3f, 0xbe,
        0xfa, 0x75, 0x3b, 0xbd, 0xd1, 0xa0, 0x40, 0xbd, 0x0e, 0x1b, 0xff, 0x3d,
        0x0d, 0x13, 0x80, 0x3c, 0x53, 0xdd, 0x86, 0x3c, 0x3f, 0x0d, 0x49, 0x3e,
        0xb8, 0x2f, 0x5a, 0xbb, 0x08, 0x87, 0x06, 0xbe, 0x7a, 0x7c, 0x2e, 0x3d,
        0x51, 0xc5, 0x40, 0x3e, 0x61, 0x1e, 0xc8, 0xbd, 0xac, 0x38, 0xaf, 0x3a,
        0xa5, 0xea, 0xc2, 0x3d, 0xbe, 0xf9, 0x0f, 0x3e, 0x0e, 0x75, 0xa8, 0xbc,
        0x0f, 0xf9, 0xd8, 0xbd, 0x06, 0x36, 0xdb, 0xbd, 0x10, 0x90, 0x28, 0x3e,
        0xf4, 0x16, 0x0c, 0x3d, 0x4a, 0xbe, 0x49, 0xbe, 0x0e, 0x4d, 0xfb, 0x3d,
        0x41, 0xeb, 0x73, 0x3e, 0xd4, 0xad, 0x58, 0x3e, 0xcc, 0x75, 0xed, 0x3d,
        0x75, 0x04, 0x7e, 0x3e, 0x7c, 0x4b, 0xe1, 0xbc, 0x2a, 0x22, 0x3a, 0x3d,
        0xce, 0xc8, 0x07, 0x3d, 0x92, 0x7b, 0x10, 0xbe, 0xeb, 0x0e, 0xff, 0x3d,
        0x39, 0x18, 0xa8, 0x3c, 0x2c, 0x3e, 0xa9, 0xbd, 0x0f, 0xba, 0xb7, 0xbc,
        0xdd, 0xa7, 0x5e, 0x3c, 0x4a, 0x6f, 0x89, 0x3d, 0xd5, 0x3f, 0x28, 0x3d,
        0xd0, 0x69, 0x0e, 0xbc, 0xae, 0x19, 0xa4, 0x3d, 0xa6, 0x3b, 0x5f, 0xbd,
        0x78, 0xa4, 0x97, 0xbd, 0x53, 0xb0, 0x95, 0x3d, 0x1d, 0x6c, 0x95, 0xbd,
        0xe5, 0xff, 0x56, 0x3d, 0x40, 0xb6, 0x29, 0x3d, 0x43, 0xbf, 0x15, 0x3e,
        0x6b, 0x28, 0x30, 0x3e, 0x95, 0xca, 0x0a, 0x3e, 0x2d, 0xae, 0x04, 0xbe,
        0x3f, 0x48, 0x1a, 0x3e, 0xaa, 0xce, 0xaa, 0xbd, 0x60, 0x3e, 0xbb, 0xbd,
        0x2a, 0x9b, 0xfa, 0x3c, 0x86, 0x93, 0x86, 0x3d, 0x0b, 0x34, 0x98, 0x3d,
        0xa2, 0xcc, 0x91, 0x3c, 0x91, 0x87, 0xe4, 0xbd, 0x1a, 0xa8, 0xe5, 0xbd,
        0x89, 0x58, 0xa0, 0x3d, 0x0b, 0x02, 0x00, 0x3d, 0xeb, 0x14, 0x6d, 0xbd,
        0xde, 0x5b, 0x7d, 0xbd, 0x45, 0x92, 0x4b, 0x3e, 0x96, 0x70, 0x3f, 0x3e,
        0xb3, 0xa5, 0xa6, 0xbd, 0x26, 0x67, 0x66, 0x3d, 0x33, 0xdb, 0x4f, 0xbe,
        0x5c, 0xeb, 0xf4, 0x3c, 0xec, 0xa0, 0x13, 0xbe, 0xe3, 0xb0, 0xd4, 0xbd,
        0x4e, 0x14, 0xa9, 0x3d, 0x6a, 0xa1, 0x75, 0xbc, 0x4e, 0x50, 0x91, 0xbd,
        0xdc, 0x60, 0x61, 0x3d, 0xec, 0xd0, 0xfa, 0xbd, 0xbe, 0xc8, 0x8a, 0x3d,
        0x63, 0xbb, 0x26, 0x3e, 0xb7, 0x77, 0x06, 0xbe, 0x6d, 0xf6, 0xe7, 0x3d,
        0xad, 0x5a, 0x6c, 0xbc, 0xbc, 0x5a, 0x97, 0xbe, 0x57, 0xcb, 0xec, 0xbd,
        0x77, 0x5e, 0x19, 0x3e, 0x02, 0x6f, 0x5e, 0x3d, 0xac, 0x70, 0x01, 0x3e,
        0xd1, 0x8f, 0xe9, 0xbd, 0x5e, 0x3c, 0x40, 0x3d, 0xe7, 0xa4, 0xf4, 0x3d,
        0x63, 0x03, 0x51, 0xbe, 0xff, 0x54, 0x43, 0x3d, 0x53, 0xd5, 0x03, 0xbe,
        0xba, 0x16, 0xde, 0x3d, 0x3d, 0xd9, 0xf1, 0x3c, 0x82, 0x08, 0x2f, 0xbe,
        0x54, 0xe6, 0xa3, 0xbd, 0x99, 0xb7, 0x0d, 0x3e, 0x81, 0x14, 0x05, 0xbd,
        0x10, 0xcd, 0x50, 0x3c, 0xd7, 0x4a, 0x0d, 0x3e, 0x99, 0x29, 0x44, 0xbe,
        0xc0, 0x41, 0x55, 0x3d, 0x34, 0x4d, 0x8d, 0x3b, 0x61, 0xfa, 0x95, 0xbd,
        0x67, 0x29, 0xe3, 0x3c, 0x9c, 0xf9, 0x3b, 0xbe, 0x55, 0x80, 0xc6, 0xbd,
        0xa2, 0xe3, 0x95, 0x3c, 0x7b, 0x74, 0xb9, 0x3d, 0x4c, 0x88, 0x82, 0xbc,
        0x67, 0xb7, 0xa8, 0x3c, 0x5a, 0x48, 0x92, 0xbc, 0x13, 0xc8, 0x03, 0xbe,
        0xb8, 0x7d, 0x23, 0xbd, 0xd2, 0x9f, 0xc9, 0xbd, 0xa9, 0xe7, 0x58, 0xbd,
        0x02, 0x2d, 0x77, 0xbb, 0xab, 0xde, 0x7c, 0xbd, 0x6d, 0x4c, 0xfb, 0xbd,
        0xc1, 0xdf, 0x4b, 0x3d, 0x9a, 0xba, 0x12, 0x3d, 0x03, 0x65, 0x28, 0xbe,
        0x27, 0x6d, 0x04, 0x3e, 0x93, 0x75, 0x52, 0x3d, 0x13, 0x84, 0x16, 0xbe,
        0x4b, 0x8f, 0x76, 0xbb, 0x95, 0x16, 0x3b, 0x3d, 0x9f, 0xb6, 0x10, 0x3e,
        0xc4, 0xe6, 0xe5, 0xbd, 0xdf, 0x0a, 0xeb, 0xbc, 0xe2, 0x97, 0x2e, 0x3d,
        0x53, 0xf3, 0x7a, 0x3d, 0x1d, 0x4d, 0x83, 0xbc, 0x49, 0xc5, 0x8c, 0x3d,
        0x11, 0x35, 0xf4, 0x3b, 0x7a, 0x36, 0xb4, 0xbd, 0x7c, 0x84, 0x54, 0xbe,
        0xea, 0xb5, 0x0f, 0xbd, 0xae, 0xef, 0x56, 0x3e, 0xe5, 0x66, 0x2c, 0xba,
        0xb1, 0x48, 0xb7, 0xbd, 0x50, 0x73, 0xa3, 0xba, 0xd1, 0xfe, 0x0d, 0xbe,
        0x87, 0xd5, 0x23, 0x3d, 0xc1, 0x36, 0x18, 0xbd, 0x00, 0x0f, 0x06, 0xbc,
        0x53, 0xb2, 0x05, 0xbe, 0xe7, 0x37, 0x75, 0x3d, 0xc8, 0x6f, 0x95, 0x3d,
        0x2d, 0x3f, 0xfa, 0xbc, 0xee, 0x49, 0x93, 0xbd, 0x4b, 0xf6, 0x60, 0xbd,
        0xf8, 0xda, 0x0e, 0xbe, 0x19, 0x55, 0x16, 0x3d, 0xd9, 0xf1, 0x44, 0x3d,
        0x64, 0x17, 0x8c, 0xba, 0x79, 0x5e, 0x8b, 0x3d, 0x75, 0xdd, 0xd2, 0x39,
        0x94, 0xb0, 0x1e, 0x3e, 0x03, 0x38, 0xb9, 0xbc, 0xca, 0xe7, 0x1c, 0xbe,
        0x03, 0x8b, 0x2d, 0xbd, 0x6c, 0xad, 0x76, 0xbe, 0x65, 0xed, 0xb4, 0x3d,
        0xd6, 0xd6, 0xde, 0x3d, 0x57, 0xef, 0x12, 0xbf, 0xd4, 0x13, 0x50, 0x3d,
        0xb7, 0x32, 0xa0, 0xbd, 0xd8, 0xd2, 0x90, 0x3b, 0x64, 0x2c, 0xe4, 0x3a,
        0xd9, 0xee, 0x9a, 0x3e, 0xb3, 0xb7, 0xb5, 0xbe, 0x4b, 0x30, 0x18, 0x3e,
        0x21, 0x43, 0x06, 0xbe, 0x7b, 0x17, 0x62, 0xbd, 0x48, 0x78, 0x36, 0x3e,
        0x39, 0xd3, 0x8c, 0x3e, 0xa7, 0xec, 0x92, 0xbd, 0xa8, 0xa7, 0x2b, 0xbd,
        0x01, 0x6e, 0x1c, 0x3f, 0xb7, 0x73, 0x08, 0xbe, 0xf9, 0x76, 0xd0, 0xbe,
        0xb5, 0x86, 0x09, 0x3d, 0x78, 0x98, 0xe2, 0xbd, 0xc0, 0x6c, 0x81, 0x3e,
        0xbc, 0x69, 0x7b, 0x3d, 0xf3, 0x13, 0x7f, 0xbd, 0x00, 0xb2, 0xb9, 0xbd,
        0xe9, 0x33, 0xa0, 0xbd, 0x9e, 0x4b, 0x5c, 0xbe, 0x8f, 0x69, 0x20, 0x3d,
        0x28, 0x20, 0xd5, 0x3e, 0x20, 0xd4, 0x74, 0x3e, 0xc1, 0x59, 0x7d, 0xbe,
        0x3e, 0xbe, 0x37, 0xbe, 0x7a, 0x24, 0x0d, 0xbd, 0xbe, 0xe2, 0x01, 0xbe,
        0xaa, 0xcb, 0xc8, 0xbe, 0x3c, 0xc4, 0x26, 0x3d, 0xd2, 0x5d, 0x8a, 0xbe,
        0x5a, 0x78, 0xf5, 0x3d, 0xa6, 0x78, 0x5d, 0xbe, 0xf6, 0x8c, 0x0c, 0xbe,
        0x93, 0x36, 0x76, 0x3d, 0x76, 0x89, 0xe2, 0x3c, 0x43, 0x48, 0x66, 0xbe,
        0x6d, 0x6d, 0x18, 0x3c, 0xec, 0xa6, 0x34, 0xbd, 0x17, 0x0e, 0x97, 0x3d,
        0x3a, 0xd4, 0xb8, 0xbe, 0xb3, 0x09, 0x50, 0xbe, 0x77, 0xb3, 0x7c, 0xbe,
        0xd5, 0xce, 0x60, 0xbe, 0x75, 0x4d, 0xd8, 0xbd, 0x40, 0xa5, 0xd4, 0xbd,
        0x29, 0xdb, 0x76, 0xbe, 0x54, 0x55, 0x1c, 0xbb, 0x9d, 0x90, 0x87, 0xbe,
        0xa0, 0x1d, 0x93, 0xbe, 0xc7, 0x21, 0xf7, 0x3d, 0x53, 0xe2, 0xb2, 0xbe,
        0x02, 0x50, 0xa7, 0xbd, 0x8c, 0x19, 0x20, 0xbe, 0x21, 0x3d, 0xe9, 0xbd,
        0xef, 0x96, 0x19, 0xbe, 0x7c, 0xee, 0xfa, 0xbd, 0x3e, 0x7e, 0x4c, 0xbd,
        0xf3, 0xcc, 0x8a, 0xbe, 0x48, 0x0a, 0xa6, 0xbe, 0x45, 0xde, 0xa2, 0xbc,
        0x73, 0x80, 0x04, 0xbe, 0x6d, 0xcf, 0xad, 0xbe, 0xdb, 0xf0, 0x51, 0x3d,
        0xb9, 0x3f, 0x68, 0xbe, 0x19, 0xc4, 0x93, 0xbe, 0xa9, 0xe9, 0xa5, 0xbd,
        0xe2, 0x7d, 0xdf, 0xbd, 0x2a, 0x9b, 0x8a, 0xbd, 0x9e, 0xb1, 0x04, 0xbe,
        0x27, 0xce, 0x5b, 0xbb, 0x49, 0x8d, 0xfe, 0xbd, 0xdd, 0xc8, 0xb3, 0xbe,
        0xa0, 0xf5, 0x18, 0xbe, 0x65, 0xc6, 0x00, 0xbf, 0x62, 0x36, 0xa3, 0xbd,
        0xad, 0x68, 0xa5, 0x3d, 0x66, 0x25, 0x23, 0xbd, 0x90, 0x9e, 0x47, 0xbe,
        0xf5, 0xaf, 0x24, 0x3d, 0xf5, 0x17, 0x2e, 0xbe, 0xc1, 0xda, 0x5f, 0x3d,
        0x42, 0xe6, 0x98, 0xbd, 0xd6, 0x93, 0xd4, 0xbe, 0xcd, 0x99, 0xfc, 0xbc,
        0xf9, 0x98, 0x63, 0xbd, 0xf7, 0x02, 0xeb, 0xbd, 0xa3, 0x7e, 0x05, 0xbe,
        0x36, 0xfc, 0x9b, 0xbe, 0xcd, 0xe7, 0xd5, 0xbd, 0x49, 0xb9, 0x8d, 0xbe,
        0x39, 0x68, 0xad, 0x3d, 0xbd, 0xbe, 0xea, 0xbc, 0x5a, 0x8b, 0x2d, 0x3d,
        0x01, 0x86, 0x24, 0x3e, 0x49, 0x2e, 0x1e, 0xbd, 0xe7, 0x3d, 0xcc, 0xbd,
        0x85, 0xb7, 0x7c, 0x3e, 0x9a, 0x30, 0x2f, 0x3e, 0xb9, 0x39, 0xa9, 0x3d,
        0x21, 0x73, 0xff, 0xbd, 0x35, 0x6d, 0xd9, 0xbd, 0xa7, 0xaa, 0x2d, 0xbd,
        0xf3, 0x4b, 0x3d, 0xbd, 0x7e, 0x7a, 0xef, 0xbd, 0xa5, 0x51, 0x84, 0xbd,
        0xef, 0xdf, 0xf8, 0x3b, 0x4d, 0xcb, 0x4d, 0x3e, 0x2b, 0x7a, 0xbf, 0x3c,
        0x1d, 0xf5, 0xc8, 0x3d, 0xb6, 0x14, 0xfc, 0x3d, 0x72, 0x12, 0x28, 0xbd,
        0x1d, 0xe4, 0x46, 0xbc, 0x2e, 0x5a, 0xde, 0x3d, 0x0d, 0x70, 0x9e, 0x3d,
        0xe5, 0xa5, 0x98, 0x3d, 0x5f, 0x19, 0x6f, 0xbc, 0x80, 0xbc, 0x91, 0x3d,
        0x34, 0x89, 0x3c, 0x3d, 0x62, 0x23, 0x86, 0xbc, 0x81, 0x24, 0x2c, 0x3d,
        0x02, 0x8c, 0x4c, 0xbe, 0xe2, 0x75, 0x4a, 0x3e, 0xea, 0x73, 0x39, 0x3e,
        0xfa, 0xe9, 0x56, 0xbd, 0x24, 0xcd, 0x98, 0x3d, 0x29, 0x3d, 0xb3, 0x3d,
        0xac, 0xd7, 0xdb, 0xbd, 0x74, 0x39, 0x0b, 0xbd, 0x97, 0xb5, 0x0b, 0x3e,
        0xb2, 0x4b, 0x7e, 0xbd, 0xd8, 0x44, 0x3e, 0x3e, 0xc1, 0x74, 0x8e, 0xbe,
        0x77, 0x67, 0x3b, 0xbd, 0xd0, 0x40, 0x81, 0xbc, 0x58, 0x17, 0x09, 0xbd,
        0x51, 0x70, 0x53, 0xbc, 0x11, 0x28, 0x93, 0xbe, 0xc4, 0xe8, 0xeb, 0x3d,
        0x9e, 0x4d, 0x20, 0x3d, 0x7b, 0xc7, 0x0d, 0xbe, 0xe6, 0x11, 0x23, 0x3d,
        0x64, 0x88, 0x36, 0x3e, 0x44, 0x9d, 0x33, 0xbe, 0xe5, 0xc4, 0x52, 0xbd,
        0xf8, 0x9b, 0x45, 0x3e, 0x35, 0x88, 0xc1, 0x3d, 0x6e, 0x75, 0x5d, 0x3e,
        0xed, 0x7f, 0x71, 0x3d, 0x60, 0x0a, 0x5a, 0x3c, 0x70, 0x61, 0x18, 0x3e,
        0x8f, 0x07, 0x46, 0xbd, 0xde, 0x65, 0x3b, 0xbd, 0x61, 0x61, 0x4b, 0xbe,
        0xab, 0xa5, 0x06, 0x3d, 0x70, 0xe0, 0xf9, 0x3c, 0xa3, 0x9a, 0x60, 0xbd,
        0x10, 0x80, 0x26, 0xbd, 0x60, 0xf1, 0x78, 0x3e, 0x0d, 0x5c, 0x5e, 0x3b,
        0xc4, 0xe3, 0xad, 0x3c, 0x28, 0xb7, 0x89, 0x3e, 0x7d, 0x80, 0x14, 0x3e,
        0x45, 0xc5, 0x99, 0x3e, 0x86, 0x60, 0x98, 0x3d, 0xf3, 0xb4, 0x5e, 0xbd,
        0x64, 0x88, 0x82, 0x3d, 0xa9, 0x14, 0x89, 0x3d, 0xde, 0x23, 0xd9, 0x3b,
        0xf7, 0x1c, 0x62, 0x3d, 0x32, 0x15, 0x64, 0x3e, 0x0c, 0x63, 0xa7, 0xbd,
        0x7f, 0x71, 0x45, 0xbe, 0x3a, 0x68, 0x49, 0xbe, 0x63, 0xcd, 0x02, 0x3d,
        0x47, 0xc5, 0x87, 0xbd, 0xd3, 0x62, 0xeb, 0xbd, 0xe5, 0x3e, 0xd4, 0xbc,
        0x5a, 0x99, 0x03, 0x3d, 0xcf, 0xbd, 0x06, 0x3e, 0x78, 0x1c, 0x12, 0xbe,
        0xc3, 0x28, 0x69, 0xbe, 0x59, 0x39, 0x6d, 0x3e, 0x73, 0xdb, 0xec, 0xbc,
        0xc9, 0x3f, 0xa8, 0x3d, 0xbc, 0x08, 0xa8, 0xbe, 0x9e, 0x16, 0x0a, 0xbe,
        0xa1, 0x5a, 0x2a, 0xbe, 0x00, 0x0f, 0xe5, 0x3d, 0x85, 0xf1, 0x03, 0xbe,
        0x75, 0x3f, 0xa8, 0xbd, 0x46, 0x2b, 0x36, 0xbe, 0xf7, 0xd6, 0x85, 0xbe,
        0x10, 0x6c, 0x00, 0x3d, 0x37, 0x92, 0xd1, 0x3c, 0x51, 0x4b, 0x20, 0x3d,
        0x9d, 0xac, 0xbe, 0x3d, 0x98, 0x6e, 0x8c, 0xbd, 0x87, 0x94, 0x80, 0x3e,
        0x60, 0x84, 0x72, 0xbe, 0x01, 0x8e, 0xfd, 0xbd, 0x97, 0xed, 0x56, 0xbd,
        0xfd, 0x88, 0x52, 0xbe, 0x11, 0x4a, 0x61, 0xbe, 0x0b, 0x01, 0x74, 0x3e,
        0xe9, 0xa7, 0x0f, 0xbe, 0x6b, 0x41, 0x8d, 0x3e, 0xf3, 0x8c, 0x91, 0xbe,
        0x4d, 0xad, 0x65, 0xbe, 0x97, 0x37, 0x02, 0xbc, 0x2a, 0x34, 0x66, 0x3c,
        0x08, 0x74, 0xd4, 0x3d, 0x0a, 0x2d, 0x47, 0xbd, 0x0b, 0xa9, 0xea, 0x3d,
        0xaf, 0xe7, 0x23, 0x3d, 0xbc, 0xb4, 0x2d, 0xbe, 0x90, 0x3d, 0x33, 0xbe,
        0x8c, 0x07, 0x5f, 0xbd, 0x8e, 0x08, 0x7d, 0xbe, 0x78, 0xda, 0x53, 0xbe,
        0xbb, 0x32, 0x02, 0x3f, 0x34, 0xf6, 0x67, 0xbd, 0xfa, 0xf6, 0x7f, 0xbd,
        0x28, 0x9d, 0x3a, 0xbe, 0xb7, 0xf7, 0xee, 0xbc, 0xe8, 0x9c, 0x1c, 0xbe,
        0x4b, 0x04, 0x6c, 0x3e, 0x2b, 0xb7, 0x7f, 0xbe, 0xa3, 0x1a, 0x20, 0xbe,
        0xa7, 0xbd, 0xdb, 0xbd, 0x86, 0xc4, 0x92, 0x3d, 0xc2, 0x66, 0xeb, 0xbd,
        0x6c, 0x69, 0x53, 0x3d, 0xd6, 0x51, 0xf7, 0x3c, 0xe1, 0xb1, 0x6a, 0xbe,
        0xde, 0xf0, 0xc0, 0xbc, 0xc4, 0x20, 0xf5, 0x3e, 0x58, 0xa4, 0xe8, 0xbd,
        0xa2, 0xec, 0x5a, 0xbe, 0x2b, 0x54, 0x8b, 0xbe, 0xef, 0xdd, 0x9a, 0xbd,
        0x14, 0x49, 0xfc, 0xbd, 0xfd, 0x9b, 0x98, 0x3d, 0x7c, 0xf6, 0x5d, 0xbd,
        0x2d, 0xc4, 0x2d, 0x3d, 0x76, 0x64, 0xb4, 0x3b, 0xa2, 0x9c, 0x19, 0x3e,
        0x84, 0x53, 0xed, 0xbd, 0x65, 0x27, 0xba, 0xbd, 0x92, 0x11, 0x0e, 0xbe,
        0xaf, 0xfe, 0x51, 0xbd, 0x75, 0x6d, 0x00, 0xbe, 0x53, 0xce, 0x39, 0x3e,
        0xed, 0x15, 0xc5, 0xbd, 0x52, 0x16, 0x3a, 0x3d, 0x26, 0xd5, 0x77, 0xbd,
        0xc1, 0xe4, 0xbd, 0xbb, 0xb6, 0x7c, 0x59, 0xbd, 0x33, 0xf0, 0x82, 0x3c,
        0x1d, 0x7c, 0x52, 0xbd, 0x03, 0x2a, 0xec, 0x3d, 0xf2, 0xf9, 0x0d, 0x3e,
        0xc4, 0x72, 0x27, 0xbd, 0xc7, 0xd0, 0xd8, 0xbd, 0x01, 0xb6, 0x2c, 0x3d,
        0xf0, 0xab, 0x6a, 0x3b, 0x80, 0x83, 0x64, 0xbe, 0x66, 0x0a, 0x94, 0xbc,
        0x5d, 0x6a, 0x08, 0x3e, 0xc6, 0x9f, 0xc2, 0xbd, 0x03, 0x63, 0x42, 0xbc,
        0x91, 0xf5, 0x08, 0xbe, 0xd5, 0xe6, 0xc9, 0xbd, 0xe0, 0x45, 0xcc, 0xbd,
        0x60, 0xc6, 0x0c, 0x3c, 0x25, 0x08, 0x86, 0xbd, 0xea, 0x9c, 0x9a, 0xbc,
        0xda, 0x76, 0x4c, 0x3d, 0x5b, 0x65, 0xcb, 0xbc, 0x36, 0x63, 0x40, 0xbc,
        0x2f, 0xee, 0xab, 0xbd, 0x8a, 0x01, 0x55, 0xbd, 0x72, 0xb8, 0x9b, 0xbe,
        0x2f, 0xbd, 0x98, 0xbd, 0x44, 0x11, 0xb3, 0xbb, 0x2c, 0x99, 0x62, 0xbb,
        0x84, 0xfb, 0xfe, 0xbd, 0x78, 0xad, 0x80, 0xbb, 0x4c, 0x4f, 0x4b, 0xbd,
        0x89, 0x80, 0xb9, 0x3c, 0xec, 0x3a, 0xcf, 0x3c, 0x3a, 0x69, 0xaf, 0x3c,
        0x04, 0x40, 0x20, 0xbe, 0x3c, 0xf3, 0xc0, 0x3d, 0x25, 0x5d, 0x1c, 0xbe,
        0xc4, 0x5e, 0xac, 0xbd, 0xdd, 0x00, 0x16, 0xbe, 0x21, 0xc6, 0x6f, 0xbd,
        0x47, 0x78, 0x87, 0xbe, 0x38, 0x1d, 0xbe, 0x3b, 0xa2, 0x4e, 0x32, 0xbe,
        0xe9, 0x7c, 0x19, 0xbd, 0x1f, 0xfa, 0xe5, 0xbd, 0x55, 0x77, 0xa4, 0x3c,
        0xa9, 0x0d, 0xa1, 0xbd, 0x55, 0x9f, 0x22, 0x3c, 0x36, 0x41, 0x7e, 0xbd,
        0x8f, 0xb5, 0x02, 0xbe, 0xfe, 0x82, 0x12, 0xbe, 0xe4, 0x8c, 0x8b, 0xbd,
        0xec, 0x8c, 0x68, 0xbe, 0x30, 0x06, 0x08, 0xbe, 0xc1, 0x54, 0x7e, 0xbd,
        0x85, 0x95, 0xef, 0xbc, 0xc7, 0xdf, 0x94, 0xbe, 0x43, 0x1a, 0x17, 0xbe,
        0x5d, 0xe3, 0xc2, 0xbc, 0x72, 0xd9, 0x9f, 0x3c, 0x02, 0x07, 0xbd, 0xbd,
        0x67, 0x5d, 0xdf, 0x3c, 0x76, 0xcd, 0x49, 0xbe, 0xd3, 0xc6, 0x15, 0xbd,
        0xf5, 0xf4, 0x41, 0xbd, 0x92, 0x83, 0x24, 0xbd, 0x61, 0x83, 0x92, 0xbc,
        0xdb, 0x87, 0x6f, 0xbd, 0x3c, 0x2b, 0x4d, 0x3d, 0x03, 0x81, 0x86, 0xbc,
        0xeb, 0xe1, 0xb7, 0x3c, 0xbc, 0xab, 0xcd, 0x3d, 0x64, 0x99, 0x50, 0xbe,
        0x41, 0xb1, 0x41, 0xbe, 0x94, 0x99, 0x3d, 0x3d, 0xcc, 0x98, 0xda, 0xbd,
        0xe8, 0xca, 0x6a, 0xbe, 0xe5, 0x50, 0x0a, 0xbe, 0x1b, 0x06, 0x2d, 0xbd,
        0x48, 0x1c, 0x06, 0xbc, 0x45, 0x19, 0x02, 0xbd, 0xc5, 0x58, 0x67, 0xbd,
        0xe6, 0xb1, 0xcd, 0x3c, 0x1e, 0x3f, 0xda, 0x3d, 0xb9, 0x26, 0x50, 0xbd,
        0x6e, 0xac, 0x16, 0xbd, 0xc5, 0x8b, 0x1b, 0xbc, 0x8b, 0x12, 0x20, 0xbe,
        0x0e, 0x78, 0xc9, 0xbe, 0x17, 0x0d, 0x78, 0x3c, 0xf2, 0x82, 0xc5, 0xbc,
        0x2f, 0x07, 0xca, 0xbd, 0xe8, 0x66, 0xe4, 0xbd, 0x17, 0x2e, 0x8c, 0xbd,
        0x78, 0x4b, 0xdb, 0xbd, 0xd0, 0x2a, 0x3f, 0xbe, 0x52, 0x60, 0x41, 0x3d,
        0xbb, 0x20, 0x1b, 0xbe, 0x58, 0xd8, 0xcd, 0xbd, 0x5a, 0x38, 0xa4, 0xbb,
        0x75, 0x4e, 0xff, 0x3d, 0xfb, 0xce, 0xc5, 0x3c, 0xac, 0x4f, 0x1d, 0xbd,
        0x39, 0xfe, 0x4a, 0xbe, 0x06, 0xc8, 0x38, 0xbe, 0x81, 0xbb, 0x53, 0xbe,
        0x58, 0x4d, 0x13, 0xbd, 0x96, 0xfd, 0x09, 0x3d, 0x42, 0x7b, 0x40, 0xbd,
        0x26, 0x92, 0x98, 0x3d, 0x36, 0x2a, 0x24, 0x3d, 0x8b, 0x1c, 0x51, 0xbd,
        0x52, 0xbf, 0xd1, 0x3d, 0x51, 0x96, 0xd5, 0xbd, 0xfa, 0x40, 0xf2, 0xbd,
        0x79, 0x78, 0x84, 0xbc, 0xc3, 0xe9, 0x19, 0x3d, 0x69, 0x1c, 0xfa, 0xbd,
        0xfb, 0x43, 0x00, 0xbd, 0xaf, 0xe3, 0xa4, 0x3d, 0xb3, 0x20, 0x08, 0xbf,
        0x7d, 0x9b, 0xf3, 0xbc, 0x0e, 0xb9, 0xbb, 0x3c, 0xf2, 0x81, 0x34, 0xbd,
        0x49, 0x62, 0xba, 0x3d, 0x67, 0xc1, 0x4d, 0xbe, 0x1f, 0x73, 0xfc, 0xbb,
        0xb9, 0xa1, 0x4e, 0xbe, 0xf2, 0x69, 0x08, 0xbe, 0x5e, 0xae, 0x84, 0xbe,
        0x3b, 0xaf, 0x1c, 0x3b, 0xe9, 0xbd, 0xcf, 0x3d, 0x3f, 0xa9, 0xe8, 0x3d,
        0x8d, 0xcc, 0xb2, 0xbd, 0x1c, 0xd9, 0x89, 0xbd, 0x0e, 0x95, 0x89, 0x3d,
        0x6a, 0x36, 0x18, 0xbf, 0xcb, 0x03, 0x77, 0xbd, 0xb4, 0x87, 0xf2, 0x3d,
        0x35, 0x68, 0xbf, 0x3c, 0xa3, 0x3a, 0xd6, 0x3c, 0x6e, 0x57, 0x01, 0xbe,
        0xc9, 0x1e, 0xc4, 0xbd, 0x7b, 0x39, 0xcd, 0xbd, 0x70, 0xf4, 0x30, 0xbd,
        0xc3, 0x85, 0xd1, 0xbd, 0x44, 0x93, 0x03, 0xbe, 0xc2, 0xd6, 0xc0, 0x3c,
        0xa5, 0x1b, 0x12, 0xbe, 0xc0, 0x5a, 0x8a, 0x3c, 0xdb, 0x67, 0xc2, 0xbd,
        0x77, 0x98, 0x81, 0x3d, 0x96, 0xf7, 0x0d, 0xbf, 0xa5, 0xa3, 0x09, 0xbe,
        0xb1, 0x4f, 0xa0, 0x3d, 0xcd, 0xc2, 0x17, 0xbe, 0xb9, 0x9f, 0x17, 0xbe,
        0x2f, 0xef, 0xe7, 0xbd, 0x6b, 0xa7, 0x6b, 0xbd, 0x90, 0x32, 0x9a, 0xbe,
        0x3c, 0x4c, 0x6e, 0xbe, 0xaf, 0x96, 0x62, 0xbe, 0x40, 0x1e, 0x49, 0xbc,
        0x22, 0x3a, 0x70, 0xbd, 0x59, 0x34, 0x53, 0xbc, 0x8b, 0xac, 0x20, 0xbd,
        0xe4, 0xac, 0x25, 0xbd, 0xde, 0x66, 0x13, 0x3d, 0x5e, 0x0a, 0x48, 0xbe,
        0x6c, 0x50, 0xea, 0xbc, 0xe7, 0x4e, 0x91, 0xbd, 0x9f, 0xb1, 0x06, 0xbe,
        0xef, 0x6b, 0x8e, 0xbd, 0x8c, 0xe1, 0x0a, 0xbe, 0x7b, 0x4e, 0xf8, 0xba,
        0x89, 0x21, 0x1e, 0xbe, 0x98, 0xf5, 0x31, 0x3e, 0x0f, 0xe2, 0x90, 0xbe,
        0xea, 0xe5, 0x70, 0xbd, 0xa9, 0x62, 0xc5, 0x3c, 0x35, 0x03, 0xe5, 0x3d,
        0x83, 0x12, 0xb3, 0x3d, 0x81, 0x1b, 0xc4, 0x3d, 0xc8, 0xca, 0xf7, 0x3d,
        0x5f, 0x50, 0x61, 0x3e, 0xe3, 0xd2, 0x37, 0x3e, 0xb8, 0x4f, 0x34, 0xbf,
        0x30, 0xa9, 0x0a, 0x3e, 0x58, 0x95, 0x30, 0x3e, 0xf5, 0x39, 0x57, 0x3e,
        0x71, 0xef, 0x7b, 0x3d, 0xb9, 0xa9, 0x3d, 0x3e, 0x30, 0xf1, 0xec, 0xbe,
        0x8f, 0xf5, 0xca, 0xbd, 0xed, 0x14, 0xb5, 0xbe, 0xf9, 0xb1, 0x15, 0xbd,
        0xa2, 0xa7, 0xf7, 0x3d, 0x5d, 0xdf, 0x54, 0x3e, 0x5d, 0xc8, 0x07, 0xbe,
        0xd4, 0xca, 0xf4, 0x3d, 0x37, 0xff, 0x9f, 0x3e, 0x54, 0x50, 0x2b, 0x3c,
        0x88, 0x2a, 0x24, 0xbf, 0x0a, 0x5d, 0x0e, 0x3e, 0xf1, 0x4c, 0xd8, 0x3e,
        0x04, 0xc1, 0x32, 0x3e, 0x1e, 0x8d, 0xcd, 0xbd, 0x06, 0x14, 0xb4, 0x3d,
        0x9e, 0xa0, 0x2d, 0xbe, 0x32, 0x1f, 0x60, 0x3c, 0xaa, 0x35, 0x9a, 0xbc,
        0x51, 0x82, 0x65, 0x3d, 0x53, 0xf3, 0x5e, 0x3c, 0x7c, 0x95, 0x2d, 0x3e,
        0xdf, 0xed, 0xc3, 0xbd, 0x89, 0xc5, 0x56, 0xbe, 0xa7, 0x15, 0x02, 0x3e,
        0x44, 0xdf, 0x1c, 0xbe, 0x7f, 0xbc, 0xee, 0xbe, 0x55, 0x62, 0x1a, 0xbd,
        0x14, 0x12, 0xb7, 0x3e, 0x6f, 0x26, 0xa1, 0xbd, 0xaf, 0x63, 0x41, 0xbe,
        0xc8, 0xce, 0x0e, 0xbe, 0x53, 0xbb, 0x8b, 0xbe, 0x49, 0x59, 0x9d, 0x3d,
        0x85, 0xb9, 0x92, 0xbd, 0x45, 0x1c, 0x10, 0x3e, 0xbf, 0x97, 0x8e, 0x3e,
        0x3e, 0x69, 0xb6, 0xbd, 0x34, 0x17, 0x00, 0xbe, 0x4e, 0xaf, 0x1b, 0x3e,
        0x18, 0x07, 0x2b, 0x3e, 0x88, 0x85, 0x1a, 0xbe, 0x22, 0x2e, 0x60, 0xbe,
        0xbf, 0xb8, 0xcf, 0xbd, 0x32, 0x7e, 0xd0, 0x3d, 0x7d, 0x02, 0x99, 0xbc,
        0xa7, 0x07, 0x10, 0xbe, 0x43, 0x2a, 0xc9, 0x3d, 0x7b, 0x88, 0x99, 0x3d,
        0x66, 0x22, 0x8f, 0x3e, 0x81, 0xb7, 0x36, 0x3e, 0x3f, 0xdb, 0xd4, 0xbd,
        0x3b, 0x73, 0xee, 0xbc, 0xef, 0xc4, 0x54, 0xbd, 0x81, 0xfe, 0xfa, 0x3c,
        0x74, 0x7d, 0x67, 0x3e, 0xcd, 0x07, 0xa3, 0x3e, 0xae, 0x2f, 0x35, 0xbe,
        0x8c, 0xa3, 0x24, 0xbd, 0x90, 0x14, 0x81, 0xbd, 0xec, 0x35, 0x6e, 0x3e,
        0xb2, 0x11, 0x6e, 0xbd, 0xce, 0x8e, 0x35, 0xbe, 0xf8, 0x8f, 0x5e, 0xbd,
        0xf5, 0xd3, 0xd2, 0x3d, 0xd5, 0xea, 0x22, 0x3e, 0xe7, 0xd0, 0x3f, 0xbe,
        0xf6, 0xa6, 0x1c, 0xbd, 0xb4, 0xd8, 0xd3, 0x3d, 0xd4, 0x09, 0xc5, 0x3d,
        0x2b, 0x1e, 0x1a, 0xbe, 0x6e, 0x0a, 0x12, 0x3e, 0x91, 0x56, 0x5e, 0x3e,
        0xa1, 0x30, 0xe0, 0xbd, 0xa0, 0xd6, 0xc5, 0x3c, 0xb8, 0xd6, 0xd7, 0xbd,
        0x97, 0x73, 0x00, 0x3e, 0x59, 0xb9, 0xb2, 0x3d, 0x4b, 0x60, 0x6b, 0xbe,
        0x74, 0xfe, 0x4d, 0x3e, 0xed, 0x28, 0xaa, 0x3d, 0x6a, 0x6e, 0xfe, 0x3c,
        0x6a, 0x6b, 0x39, 0xbd, 0xce, 0xfa, 0x01, 0x3e, 0x5d, 0xc9, 0x4b, 0x3e,
        0x24, 0xa1, 0xe5, 0x3d, 0x5e, 0x58, 0x9e, 0xbe, 0x13, 0x59, 0x12, 0x3e,
        0x17, 0xdb, 0x1e, 0x3e, 0xa1, 0xe9, 0xe7, 0xbc, 0xfe, 0x76, 0xe2, 0xba,
        0x82, 0x5a, 0xca, 0xbd, 0x64, 0x02, 0x86, 0x3e, 0xd9, 0x53, 0xec, 0xbb,
        0x0f, 0xcf, 0x8f, 0xbd, 0xdb, 0x28, 0x84, 0x3d, 0x91, 0xc7, 0x87, 0x3d,
        0xa8, 0x3d, 0x5b, 0x3e, 0xfa, 0x86, 0x28, 0xbd, 0x30, 0x2e, 0xac, 0x3b,
        0x97, 0xfa, 0x90, 0x3e, 0x39, 0x6b, 0x8e, 0x3c, 0xdc, 0xc2, 0x1c, 0xbe,
        0x66, 0x13, 0x24, 0x3d, 0xa2, 0x95, 0xa9, 0x3e, 0x15, 0x9f, 0x13, 0x3d,
        0x46, 0x58, 0x1c, 0x3e, 0xf3, 0xf3, 0xf1, 0xbc, 0x8b, 0x01, 0xdd, 0x3d,
        0xf1, 0x62, 0x18, 0xbd, 0x69, 0xbd, 0x90, 0xbd, 0x33, 0xd8, 0x19, 0x3e,
        0xac, 0x1d, 0xe5, 0x3d, 0xf2, 0xe1, 0x25, 0x3e, 0xdd, 0xef, 0xf0, 0x3d,
        0xbe, 0xb1, 0x09, 0xbd, 0x2e, 0x6d, 0x86, 0x3e, 0x8a, 0x5c, 0xbb, 0x3d,
        0x2e, 0xd5, 0x25, 0xbe, 0x9c, 0xfe, 0x18, 0x3e, 0x6b, 0xdf, 0x31, 0x3e,
        0xf2, 0x98, 0x1f, 0xbe, 0x5b, 0x1d, 0x03, 0x3e, 0xfa, 0x92, 0x24, 0xbe,
        0x4b, 0xb7, 0x02, 0x3f, 0x07, 0x02, 0xd5, 0x3d, 0x7e, 0x60, 0x43, 0xbd,
        0x43, 0x3a, 0x26, 0x3e, 0x10, 0xd4, 0x5e, 0x3e, 0x96, 0x36, 0x46, 0x3e,
        0x76, 0x03, 0x84, 0x3d, 0xcb, 0x76, 0xa7, 0xbd, 0x7a, 0x97, 0x08, 0x3e,
        0x96, 0x24, 0x83, 0x3d, 0xc9, 0xc0, 0x85, 0xbd, 0x06, 0xe6, 0x93, 0x3e,
        0x58, 0xcd, 0x33, 0x3e, 0x65, 0x2d, 0x74, 0xbd, 0xd3, 0x0f, 0x8d, 0x3d,
        0x2f, 0xee, 0xf3, 0x3c, 0xdc, 0x0b, 0xac, 0x3e, 0xbe, 0x01, 0x4d, 0xbe,
        0x88, 0x5f, 0xa9, 0xbd, 0x46, 0x73, 0x23, 0x3e, 0x48, 0xdd, 0xdd, 0x3d,
        0x25, 0x23, 0x8b, 0x3e, 0x14, 0x09, 0x43, 0x3e, 0x59, 0xfb, 0x18, 0xba,
        0x7b, 0xa5, 0xc7, 0x3d, 0xd3, 0xfb, 0xfb, 0xbd, 0xfd, 0xc2, 0x9e, 0xbd,
        0xc5, 0x10, 0xef, 0xbd, 0x46, 0x67, 0x81, 0x3d, 0x9d, 0xc8, 0xfc, 0x3c,
        0xf3, 0xb3, 0x67, 0xbe, 0xd9, 0x96, 0x4c, 0x3c, 0x73, 0x47, 0x77, 0x3e,
        0xd1, 0x6e, 0x17, 0xbe, 0x89, 0xdf, 0x8d, 0xbd, 0xa8, 0xf1, 0x6e, 0x3e,
        0x4b, 0x82, 0x1f, 0x3e, 0x8e, 0x8c, 0x4e, 0x3e, 0xba, 0x27, 0x06, 0xba,
        0xb0, 0x95, 0x06, 0xbe, 0xf8, 0x3c, 0x9f, 0x3d, 0xfb, 0x06, 0xcd, 0xbd,
        0xa9, 0xe2, 0xe4, 0x3d, 0xb4, 0x57, 0x59, 0x3c, 0x66, 0xea, 0x49, 0x3e,
        0xd5, 0x92, 0x54, 0xbe, 0x7c, 0xd4, 0x16, 0xbb, 0x8a, 0x91, 0x2e, 0x3b,
        0x95, 0x42, 0x82, 0x3d, 0xf6, 0xd8, 0xcb, 0xbd, 0x36, 0x62, 0xb3, 0xbd,
        0x8a, 0x37, 0x51, 0x3e, 0xc3, 0x84, 0x21, 0x3e, 0xe5, 0x1c, 0x52, 0x3e,
        0x9f, 0x7d, 0x86, 0x3d, 0x6f, 0xc3, 0x31, 0xbe, 0x62, 0xee, 0x74, 0x3e,
        0xec, 0x96, 0x76, 0x3d, 0x05, 0xe3, 0x5b, 0x3d, 0x1c, 0x7f, 0x43, 0xbe,
        0x69, 0x4f, 0x59, 0x3e, 0x71, 0x6a, 0x24, 0x3e, 0x71, 0xb0, 0x62, 0xbd,
        0x4a, 0xb1, 0x45, 0xbd, 0xfe, 0xc9, 0xd8, 0x3c, 0xa9, 0x59, 0xbb, 0xbd,
        0xd1, 0x39, 0x49, 0xbd, 0x47, 0x31, 0x04, 0x3f, 0x6c, 0x1e, 0xce, 0x3d,
        0x07, 0x79, 0x9e, 0x3e, 0xdf, 0x68, 0xe1, 0x3c, 0x3f, 0x69, 0x62, 0x3c,
        0x05, 0x49, 0xa5, 0xbd, 0x46, 0x2f, 0x1b, 0xbe, 0x8f, 0xd6, 0x11, 0xbe,
        0xb8, 0xbb, 0xab, 0xbe, 0x83, 0x6f, 0x60, 0x3d, 0x99, 0xb5, 0xc9, 0xbd,
        0x4e, 0xd3, 0x64, 0xbd, 0xc1, 0xee, 0x64, 0x3c, 0xd7, 0x74, 0xd1, 0x3d,
        0x6f, 0x41, 0xb7, 0xbd, 0x03, 0xbc, 0x07, 0xbd, 0x8a, 0xfa, 0xf5, 0x3d,
        0xf4, 0x04, 0x0e, 0x3d, 0xcd, 0x42, 0xc6, 0x3d, 0xfb, 0x96, 0x91, 0x3e,
        0x0f, 0x27, 0x76, 0xbc, 0x33, 0x75, 0x8d, 0x3e, 0x66, 0xdb, 0x0c, 0xbd,
        0x6f, 0x78, 0x8c, 0xbd, 0xcb, 0xef, 0xd8, 0x3c, 0x19, 0x33, 0xa3, 0x3d,
        0xaf, 0x49, 0xc5, 0xbd, 0x75, 0xb1, 0x67, 0xbb, 0xe1, 0x3d, 0x7e, 0x3c,
        0xf2, 0x40, 0x9b, 0xbc, 0x0f, 0xe5, 0xdc, 0xbd, 0x0d, 0x3a, 0x73, 0xbd,
        0xe1, 0xc1, 0xdc, 0x3c, 0x62, 0xf9, 0x6d, 0xbd, 0x6c, 0x74, 0x20, 0xbe,
        0x4d, 0xdf, 0x09, 0x3d, 0xe0, 0x2b, 0xbf, 0xbd, 0x45, 0x80, 0xc2, 0x3a,
        0x2c, 0x7d, 0x3b, 0x3d, 0x94, 0x48, 0xc2, 0x3d, 0xac, 0x08, 0x44, 0x3d,
        0xca, 0xcd, 0x9f, 0x3d, 0x65, 0x1f, 0x97, 0xbc, 0xf4, 0x6d, 0xe6, 0x3d,
        0x37, 0x89, 0xcb, 0xbd, 0x11, 0x18, 0x91, 0x3d, 0xa5, 0x2a, 0x4a, 0x3d,
        0xe9, 0xca, 0xe1, 0xbc, 0xad, 0xea, 0x93, 0xbd, 0x0a, 0xad, 0x6a, 0x3d,
        0x43, 0x9c, 0x53, 0xbe, 0x6d, 0x3b, 0x1b, 0x3e, 0xdf, 0x43, 0x19, 0xbe,
        0x5c, 0x74, 0xf6, 0x3d, 0xae, 0x41, 0x80, 0xbd, 0x10, 0x86, 0xa5, 0xbd,
        0xd5, 0xf1, 0x29, 0xbe, 0xfc, 0xf1, 0xb5, 0xbd, 0xf4, 0x65, 0xf5, 0x3c,
        0x6d, 0x96, 0xb2, 0xb9, 0x4d, 0x53, 0x1a, 0xbe, 0xeb, 0xd6, 0x92, 0x3c,
        0xe3, 0x06, 0xfb, 0xbd, 0x88, 0x44, 0x8b, 0xbd, 0xfb, 0xbd, 0x17, 0x3e,
        0x24, 0xc0, 0xcd, 0xbd, 0x1c, 0xb4, 0x6b, 0xbd, 0xa6, 0x37, 0x13, 0x3d,
        0xcf, 0xd5, 0x10, 0xbe, 0x82, 0xce, 0xaa, 0x3c, 0x6a, 0x17, 0xd9, 0xbd,
        0x2b, 0x72, 0xbd, 0xbd, 0xe7, 0xa8, 0xc2, 0xbd, 0x4b, 0x31, 0x32, 0xbd,
        0xa6, 0xdf, 0x0c, 0xbe, 0x45, 0xbd, 0x9e, 0x3d, 0x85, 0x26, 0x4a, 0x3d,
        0x89, 0x81, 0xf9, 0x3d, 0x97, 0xec, 0x87, 0xbd, 0x7a, 0xf2, 0x7f, 0x3d,
        0xbb, 0x1d, 0x80, 0xbc, 0xae, 0xcc, 0x47, 0x3d, 0x93, 0x22, 0x42, 0xbe,
        0x9d, 0x08, 0x1e, 0x3e, 0xc9, 0x1f, 0x58, 0xbd, 0xcc, 0x2c, 0x06, 0xbe,
        0xe9, 0xb9, 0xb1, 0x3d, 0x06, 0x6c, 0x26, 0xbe, 0x2b, 0xb2, 0x11, 0xbd,
        0x49, 0xbd, 0x06, 0x3c, 0xe5, 0x91, 0xa7, 0x3d, 0xa8, 0x09, 0x33, 0xbe,
        0xf8, 0xba, 0x35, 0xbe, 0x9e, 0xe0, 0x60, 0x3d, 0x73, 0x65, 0x5e, 0xbd,
        0xff, 0xb8, 0xa1, 0x3d, 0xbe, 0x4a, 0xa0, 0xbd, 0xe0, 0x00, 0xb7, 0xbd,
        0xea, 0xc6, 0x8d, 0x3c, 0xca, 0xe2, 0x2a, 0xbe, 0x7d, 0x01, 0x48, 0xbe,
        0xd3, 0xdd, 0xed, 0x3d, 0xc0, 0xc1, 0x1d, 0xbe, 0x6a, 0xd5, 0x61, 0xbe,
        0x21, 0xd0, 0xc1, 0xbd, 0x5e, 0xec, 0x5b, 0xbe, 0xdb, 0xd1, 0xa9, 0xbd,
        0xa6, 0xd6, 0x12, 0xbe, 0x41, 0x23, 0x3e, 0xbd, 0x85, 0x71, 0x65, 0x3e,
        0x65, 0xe1, 0x93, 0xbd, 0x91, 0x09, 0xa2, 0x3d, 0x01, 0xff, 0xb9, 0xbd,
        0x0f, 0x94, 0x35, 0x3c, 0x66, 0xf8, 0x22, 0x3e, 0xca, 0x49, 0x1f, 0x3e,
        0x36, 0x1b, 0x59, 0x3d, 0xce, 0x02, 0x26, 0x3d, 0xb4, 0x2a, 0x68, 0xbd,
        0x0d, 0x99, 0x33, 0xbe, 0x0d, 0x2a, 0xef, 0xbd, 0x00, 0x69, 0xc2, 0xbd,
        0x2a, 0x84, 0xe1, 0x3d, 0xea, 0xbb, 0xab, 0x3d, 0x19, 0x98, 0x24, 0xbe,
        0xf5, 0x03, 0xd8, 0x3d, 0xe2, 0x40, 0xdb, 0xbc, 0x2f, 0x6b, 0xad, 0x3d,
        0x2c, 0xcd, 0xca, 0x3d, 0x1a, 0x0e, 0x25, 0xbe, 0x03, 0x2c, 0x45, 0x3d,
        0xdf, 0x0f, 0x9e, 0x3d, 0x25, 0x81, 0xbd, 0x3d, 0xf7, 0x63, 0xee, 0xbd,
        0x0c, 0xe9, 0x12, 0x3d, 0xed, 0xe2, 0x1c, 0xbe, 0x4c, 0x0e, 0x03, 0xbe,
        0xd6, 0x33, 0x1a, 0xbe, 0x9b, 0x0e, 0xaf, 0xbd, 0x03, 0x4d, 0x16, 0xbe,
        0x3a, 0xc4, 0xc6, 0xbd, 0x62, 0x89, 0x2a, 0xbd, 0x67, 0x7c, 0x4e, 0xbc,
        0x02, 0xfa, 0x3f, 0xbe, 0x65, 0x57, 0x1b, 0x3d, 0x74, 0xc7, 0x37, 0x3d,
        0xaf, 0x80, 0x92, 0x3d, 0x2e, 0x46, 0x98, 0x3d, 0x39, 0xce, 0x25, 0x3d,
        0x2b, 0xb8, 0xa6, 0x3c, 0x25, 0x4b, 0x19, 0xbd, 0x06, 0x1f, 0x8f, 0xbc,
        0xc7, 0x30, 0x9c, 0x3d, 0xa0, 0x28, 0xc0, 0xbc, 0xd1, 0xff, 0x2b, 0xbe,
        0x33, 0x6a, 0x90, 0x3c, 0x91, 0x14, 0x18, 0xbe, 0x88, 0x93, 0x68, 0xbd,
        0x11, 0xdb, 0x62, 0xbe, 0xbc, 0xc3, 0x10, 0xbe, 0x4c, 0x11, 0x84, 0xbd,
        0x35, 0x77, 0x17, 0x3e, 0x76, 0x00, 0x6b, 0x3d, 0xf1, 0x02, 0xd7, 0xbd,
        0x8b, 0x0e, 0xc0, 0xbd, 0x75, 0x37, 0x21, 0x3e, 0x3f, 0x3b, 0x11, 0x3d,
        0x08, 0xce, 0x1d, 0x3d, 0x5e, 0x7b, 0x89, 0x3d, 0xbe, 0x75, 0x3d, 0xbe,
        0x19, 0x6b, 0x76, 0xbc, 0x00, 0xcf, 0x08, 0x3e, 0x9f, 0xcc, 0x3c, 0xbe,
        0x51, 0x59, 0x51, 0x3b, 0xfe, 0xbb, 0xa5, 0xbd, 0x50, 0x3e, 0x06, 0x3e,
        0x93, 0xa4, 0xb9, 0xbd, 0xe0, 0x91, 0xe8, 0xbd, 0xf7, 0xaa, 0x92, 0xbd,
        0xe1, 0x14, 0x3a, 0xbe, 0xa6, 0x38, 0xe7, 0xbc, 0xd2, 0x4e, 0x60, 0xbd,
        0x45, 0xb9, 0xd9, 0xbd, 0xa3, 0x11, 0x8c, 0xbc, 0xe8, 0x48, 0x21, 0x3e,
        0x04, 0xd9, 0xa9, 0xbd, 0xe7, 0xdd, 0x9b, 0x3c, 0xe4, 0x44, 0x24, 0xbe,
        0x2d, 0x0f, 0x4c, 0x3d, 0xf9, 0xaf, 0x01, 0x3e, 0xd9, 0xe3, 0x26, 0xbe,
        0x70, 0xde, 0x28, 0xbe, 0x8c, 0x85, 0x3d, 0xbe, 0x4e, 0x59, 0xed, 0xbd,
        0xdc, 0x85, 0x05, 0xbd, 0x01, 0x3c, 0xff, 0xbb, 0xb4, 0xc8, 0x1d, 0x3e,
        0xe4, 0xb6, 0xdf, 0xbd, 0x0e, 0xf2, 0x23, 0xbc, 0x2a, 0x92, 0x8a, 0xbc,
        0x31, 0x99, 0x10, 0x3d, 0xa4, 0x95, 0x22, 0xbe, 0x5b, 0x3e, 0xe6, 0x3c,
        0x5d, 0xce, 0x58, 0xbe, 0xaa, 0x06, 0x12, 0xbe, 0x33, 0xf0, 0x88, 0xbd,
        0x52, 0xad, 0x33, 0xbe, 0xa7, 0x28, 0x51, 0x3d, 0x3f, 0xea, 0xde, 0xbd,
        0xf4, 0xf9, 0x9f, 0xbd, 0x63, 0x3e, 0x8c, 0x3a, 0x6f, 0x83, 0x80, 0xbc,
        0x0a, 0x89, 0x99, 0xbd, 0xdc, 0x13, 0x1c, 0xbe, 0x68, 0x12, 0x47, 0xbe,
        0x28, 0x9a, 0x0b, 0xbe, 0xb3, 0x7e, 0x44, 0x3c, 0x10, 0x92, 0xed, 0xbd,
        0x9e, 0xc2, 0xac, 0x3d, 0x53, 0x12, 0xaa, 0xbd, 0x89, 0x5e, 0x8d, 0xbd,
        0x5c, 0x87, 0xac, 0x3d, 0x0e, 0xa3, 0x44, 0xbe, 0xce, 0x81, 0xea, 0xbc,
        0x99, 0x68, 0xbd, 0xbc, 0xba, 0x99, 0x1b, 0xbe, 0x3a, 0x6b, 0x6e, 0xbd,
        0x9a, 0xb3, 0x1a, 0x3e, 0xc8, 0x19, 0xf8, 0x3a, 0xc4, 0xdb, 0x5d, 0xbd,
        0x87, 0xfb, 0x59, 0xbd, 0xf4, 0xf9, 0x87, 0xbc, 0x4b, 0xf9, 0xf7, 0xbc,
        0x3a, 0x8b, 0x71, 0xbe, 0x61, 0xce, 0xbd, 0xbd, 0x03, 0xbe, 0x4f, 0xbd,
        0xcf, 0x3f, 0x91, 0x3d, 0xa2, 0xa5, 0x27, 0xbe, 0x3f, 0x5e, 0xba, 0xbd,
        0x36, 0xce, 0x02, 0x3e, 0x40, 0x8b, 0xca, 0xbd, 0xa6, 0x6e, 0xeb, 0xbd,
        0x5b, 0xba, 0xab, 0xbd, 0xf0, 0x1c, 0x10, 0xbe, 0x52, 0xf0, 0x09, 0xbd,
        0x0e, 0x64, 0x63, 0x3d, 0xad, 0xc9, 0x3a, 0x3c, 0xf5, 0xc1, 0x82, 0xbd,
        0x4c, 0x59, 0x08, 0xbe, 0xc0, 0x79, 0x92, 0x3c, 0xcd, 0x36, 0x98, 0xbd,
        0x18, 0x37, 0x36, 0xbe, 0xa3, 0x40, 0x57, 0x3c, 0x1d, 0x1d, 0x0b, 0xbb,
        0x64, 0x88, 0x3a, 0xbe, 0x56, 0xa5, 0x3d, 0xbe, 0xf7, 0x81, 0x0a, 0x3d,
        0x71, 0x2d, 0x94, 0xbd, 0xc0, 0x55, 0x92, 0x3d, 0x9e, 0x36, 0x8a, 0xbc,
        0x96, 0xb6, 0x4b, 0x3d, 0x19, 0xdb, 0x21, 0x3e, 0x50, 0x4a, 0xae, 0x3d,
        0x79, 0x08, 0xe3, 0xbd, 0x55, 0xc2, 0x8e, 0x3d, 0x29, 0x46, 0x90, 0x3d,
        0x61, 0x71, 0x26, 0xbe, 0x67, 0x95, 0x54, 0xbd, 0x8f, 0x1b, 0x37, 0x3d,
        0x9e, 0x76, 0x94, 0x3d, 0x63, 0xaf, 0x64, 0xbd, 0x16, 0x9c, 0x2b, 0xbe,
        0x26, 0x92, 0x32, 0x3d, 0xb5, 0xdf, 0x21, 0xbe, 0x23, 0xc1, 0x4a, 0xbe,
        0xda, 0x53, 0x11, 0xbd, 0xa0, 0xa2, 0x60, 0xbb, 0xd0, 0x99, 0x2c, 0xbe,
        0xa6, 0xf5, 0x1a, 0xbc, 0xb0, 0x36, 0x4a, 0xbe, 0x7a, 0xcb, 0xa4, 0xbd,
        0x70, 0x22, 0x99, 0x3d, 0xcc, 0x0c, 0x66, 0xbd, 0x60, 0xca, 0x21, 0x3b,
        0xdf, 0x17, 0x3c, 0xbe, 0x02, 0x00, 0x1b, 0xbe, 0x40, 0x2e, 0xb8, 0x3d,
        0x9e, 0x54, 0x31, 0xbe, 0x79, 0x9b, 0x8f, 0x3d, 0x35, 0x27, 0x20, 0xbb,
        0xd5, 0x84, 0xd0, 0x3d, 0xb0, 0xe8, 0xfe, 0xbd, 0xb8, 0xa0, 0xdf, 0x3d,
        0xe5, 0x53, 0xaf, 0xbd, 0x7c, 0x04, 0xfc, 0xbd, 0x10, 0x7b, 0xac, 0xbd,
        0x1b, 0x51, 0x02, 0x3d, 0xa5, 0xda, 0x93, 0x3d, 0x2d, 0x7c, 0xfd, 0xbd,
        0x80, 0x02, 0xdc, 0x3d, 0xdf, 0xfe, 0x47, 0xbd, 0x58, 0x42, 0x71, 0xbc,
        0xda, 0x1f, 0xc1, 0x3d, 0xf8, 0xe6, 0xe2, 0xbd, 0xd4, 0x17, 0x6a, 0x3c,
        0x8a, 0xd5, 0x83, 0xbd, 0xf7, 0x4a, 0xb4, 0xbd, 0x15, 0x1a, 0xc7, 0xbc,
        0x54, 0xa5, 0x9c, 0xbd, 0xbc, 0xe0, 0xb9, 0x3d, 0xa3, 0x77, 0x32, 0xbe,
        0x86, 0x8e, 0x2a, 0xbe, 0x23, 0xe4, 0xcd, 0xbd, 0x9b, 0x82, 0x9c, 0xbc,
        0x43, 0x1a, 0x58, 0x3d, 0x40, 0x07, 0xac, 0x3d, 0x80, 0xef, 0x4e, 0x3d,
        0xcc, 0x3b, 0xf0, 0xbc, 0xbd, 0x85, 0x19, 0xbd, 0xbf, 0x04, 0x20, 0x3c,
        0xfb, 0xa7, 0xba, 0xbd, 0xeb, 0xdb, 0x80, 0x3c, 0x9c, 0xc8, 0xb1, 0xbd,
        0x14, 0xca, 0x2d, 0xbe, 0x0e, 0x54, 0xb7, 0xbd, 0x4b, 0xcb, 0xf2, 0x3d,
        0xa8, 0xa5, 0x8b, 0xbd, 0xcf, 0xd4, 0xb0, 0xbc, 0x7b, 0x04, 0x2f, 0xbe,
        0xa4, 0xf8, 0xe8, 0xbc, 0x4d, 0x11, 0x88, 0xbd, 0x77, 0x2a, 0x28, 0xbe,
        0xff, 0xc7, 0x95, 0x3c, 0x7f, 0x21, 0xbc, 0x3b, 0x46, 0x54, 0x0e, 0xbe,
        0xc3, 0x70, 0x3b, 0xbc, 0xd8, 0x0d, 0x2e, 0xbc, 0x7a, 0xf6, 0xa7, 0xbd,
        0x15, 0x5d, 0x20, 0xbe, 0x38, 0x8e, 0xe6, 0x3d, 0xce, 0xc3, 0xf9, 0xbd,
        0x4d, 0x66, 0xc8, 0xbd, 0xa9, 0x29, 0xc9, 0x3d, 0xd1, 0x35, 0x20, 0xbe,
        0x30, 0x3d, 0x10, 0xbd, 0x71, 0x6c, 0x14, 0xbd, 0x5c, 0xeb, 0x25, 0x3c,
        0xd4, 0x84, 0x31, 0x3e, 0xa8, 0x98, 0xad, 0xbc, 0x7f, 0x8e, 0xf1, 0x3c,
        0x4b, 0xe8, 0xd7, 0x3c, 0x64, 0xbe, 0xc9, 0xba, 0x49, 0x7e, 0xe4, 0x3c,
        0x70, 0xf9, 0xaf, 0xbd, 0xc5, 0x84, 0x11, 0xbe, 0x23, 0xd7, 0x15, 0x3d,
        0x06, 0x67, 0x1b, 0xbe, 0x00, 0xb7, 0xba, 0xbd, 0x7b, 0xc5, 0x8f, 0x3b,
        0x91, 0x8b, 0x82, 0x3d, 0xde, 0x78, 0xbf, 0x3c, 0xa6, 0xe6, 0x2f, 0x3d,
        0x34, 0xcb, 0xab, 0xbd, 0x8a, 0x89, 0xee, 0x3c, 0x63, 0x10, 0x1e, 0xbe,
        0x9b, 0xd1, 0x84, 0x3d, 0xbb, 0xdc, 0xb5, 0xba, 0xc1, 0xd2, 0x38, 0xbe,
        0xbc, 0xc2, 0x27, 0xbe, 0x55, 0x88, 0xeb, 0xbc, 0xe0, 0x23, 0x2d, 0xbe,
        0xe6, 0xc5, 0x9b, 0xbd, 0x59, 0xdf, 0xe9, 0xbd, 0x6c, 0x26, 0xab, 0xbd,
        0xa9, 0x37, 0x81, 0x3d, 0xf2, 0xd0, 0x19, 0xbe, 0x25, 0x58, 0x3f, 0xbe,
        0x22, 0x4a, 0x45, 0xbe, 0xfb, 0x6e, 0x12, 0x3d, 0x37, 0x59, 0xf9, 0x3d,
        0xcc, 0xb3, 0x24, 0xbe, 0x85, 0x58, 0x2d, 0xbe, 0xa3, 0x37, 0x38, 0xbe,
        0x9f, 0xc8, 0x8d, 0x3d, 0x68, 0x9c, 0x2c, 0xbe, 0xe8, 0x73, 0x4a, 0xbe,
        0xa3, 0xde, 0x46, 0xbe, 0xb3, 0xb5, 0x83, 0xbd, 0x8c, 0x2b, 0xa0, 0xbd,
        0xd2, 0x73, 0x52, 0x3d, 0x76, 0xe8, 0xbc, 0xbd, 0x1e, 0xd7, 0x3e, 0xbe,
        0x67, 0x24, 0xc7, 0x3d, 0xbe, 0x69, 0x56, 0xbe, 0x06, 0xb5, 0x37, 0xbe,
        0xae, 0xd4, 0x2b, 0xbe, 0x5c, 0xe8, 0x04, 0xbe, 0x32, 0xaf, 0x2b, 0xbe,
        0x2d, 0xa3, 0xa0, 0xbd, 0x48, 0xf8, 0xfc, 0xbc, 0x67, 0x1e, 0x52, 0x3c,
        0x18, 0x08, 0x19, 0xbc, 0x2e, 0xa0, 0xbb, 0x3d, 0xdc, 0x29, 0x07, 0xbe,
        0x62, 0x0b, 0xd5, 0x3d, 0xd2, 0x90, 0x8c, 0x3d, 0x83, 0x09, 0x15, 0xbe,
        0xaa, 0xc1, 0xdc, 0xbc, 0xd4, 0xfd, 0xef, 0xbd, 0xc1, 0xee, 0x8f, 0x3d,
        0x84, 0x86, 0xcb, 0xbc, 0xd8, 0x3e, 0x00, 0x3e, 0x32, 0x70, 0x8d, 0x3c,
        0x51, 0xda, 0x9f, 0x3d, 0x71, 0x7b, 0x44, 0xbd, 0x56, 0xdc, 0x86, 0xbd,
        0xa2, 0xd3, 0x23, 0xbe, 0x0f, 0x74, 0x6f, 0x3d, 0xf5, 0x9b, 0xda, 0xbd,
        0x93, 0xf5, 0xe9, 0xbd, 0x83, 0x9d, 0x9f, 0x3d, 0xea, 0x58, 0xf2, 0xbc,
        0x94, 0xfe, 0x0e, 0xbe, 0xc8, 0xcd, 0x26, 0xbe, 0x77, 0xbe, 0x4b, 0x3d,
        0x34, 0x3e, 0xbf, 0xbc, 0x97, 0x72, 0xe6, 0x3a, 0x46, 0xce, 0x09, 0xbe,
        0x7e, 0xca, 0x01, 0xbe, 0x11, 0x49, 0x5b, 0x3d, 0x4c, 0x76, 0x31, 0x3c,
        0x9c, 0x86, 0xc1, 0xbd, 0x59, 0x8f, 0xb3, 0xbd, 0x8e, 0xa1, 0xee, 0x3c,
        0xbb, 0x36, 0x34, 0xbe, 0x1d, 0x6c, 0xd3, 0xbc, 0xb1, 0xba, 0x5c, 0x3c,
        0x2e, 0x21, 0xa0, 0x3d, 0x34, 0xc5, 0x48, 0xbe, 0x3b, 0x7d, 0x17, 0xbe,
        0x99, 0x89, 0x3c, 0x3c, 0x6b, 0xed, 0x72, 0x3d, 0x08, 0x5d, 0x53, 0xbd,
        0xab, 0x3c, 0xc5, 0xbd, 0x66, 0x04, 0xc9, 0xbd, 0x5b, 0x15, 0x11, 0xbe,
        0x2a, 0x04, 0x90, 0x3d, 0xf2, 0x5a, 0xe9, 0xbd, 0x07, 0x59, 0xe1, 0xbd,
        0x05, 0x70, 0xa6, 0x3d, 0xe4, 0x02, 0xc1, 0xbd, 0xe5, 0x8a, 0xce, 0x3d,
        0xa4, 0x86, 0xe0, 0x3c, 0x6c, 0xcf, 0x78, 0x3c, 0xdc, 0xf2, 0xc1, 0xbd,
        0xc5, 0x59, 0xb3, 0x3c, 0x74, 0xd1, 0x54, 0xbd, 0xca, 0x50, 0x74, 0xbe,
        0x4a, 0xe1, 0x42, 0xbe, 0xba, 0xb9, 0x64, 0xbe, 0x98, 0x64, 0x62, 0xbd,
        0x15, 0x51, 0x5d, 0x3d, 0xd9, 0xae, 0x09, 0xbe, 0x69, 0xaf, 0x87, 0x3d,
        0x31, 0x54, 0x0a, 0xbe, 0x96, 0x9c, 0x94, 0x3c, 0xa6, 0x30, 0x89, 0xbc,
        0x27, 0x64, 0xc7, 0x3c, 0xcf, 0x31, 0xb4, 0xbd, 0xb3, 0x0a, 0x3d, 0xbb,
        0xa6, 0x7d, 0x1f, 0xbe, 0xdf, 0x56, 0xbf, 0xbd, 0xb0, 0x30, 0x80, 0x3d,
        0x27, 0xe5, 0x64, 0xbe, 0xc6, 0x46, 0x52, 0xbe, 0x80, 0x51, 0x32, 0xbd,
        0x7a, 0x6a, 0x98, 0xbd, 0x41, 0x34, 0x07, 0xbe, 0x0c, 0xae, 0xb6, 0x3c,
        0xf2, 0xed, 0x70, 0x3d, 0x6f, 0x5e, 0xce, 0xbd, 0x77, 0xec, 0x1d, 0x3e,
        0xfd, 0x4f, 0x81, 0xbd, 0x90, 0xe6, 0xda, 0x3d, 0x74, 0x89, 0xf1, 0x3d,
        0x1c, 0xf8, 0x11, 0xbd, 0xf3, 0x2f, 0x0b, 0xbd, 0xa6, 0xb9, 0x58, 0xbd,
        0x72, 0x3a, 0x94, 0x3d, 0xd8, 0x85, 0xad, 0x3d, 0x47, 0xd1, 0x88, 0x3d,
        0x60, 0x6e, 0x39, 0xbd, 0xb3, 0x02, 0x5b, 0xbc, 0xfc, 0xf5, 0xc8, 0x3c,
        0x3f, 0xbb, 0x0c, 0xbe, 0x48, 0x8e, 0x15, 0xbe, 0x2d, 0xd2, 0x9e, 0x3d,
        0x79, 0xab, 0x3d, 0xbe, 0x7f, 0x87, 0xa5, 0xbc, 0xed, 0xc6, 0xd7, 0xbc,
        0xd5, 0xc4, 0x8d, 0x3d, 0x9f, 0x7d, 0xcc, 0x3d, 0xde, 0xac, 0x0f, 0xbc,
        0xdc, 0xb4, 0xb7, 0x3c, 0xc4, 0x0e, 0x56, 0xbe, 0x56, 0x1e, 0x08, 0xbe,
        0x2f, 0x38, 0xfe, 0x39, 0x20, 0x65, 0xc8, 0x3d, 0x2d, 0x20, 0xb2, 0xbd,
        0xfb, 0xb1, 0x3f, 0x3e, 0x79, 0xf2, 0x3c, 0x3c, 0x9d, 0x33, 0x49, 0x3d,
        0x96, 0x72, 0xba, 0x3d, 0xdb, 0xd2, 0x08, 0x3e, 0x60, 0x00, 0x4d, 0xbe,
        0x70, 0xad, 0xec, 0xbc, 0x0c, 0x82, 0xca, 0x3d, 0xad, 0x72, 0xcd, 0x3d,
        0xe9, 0x80, 0x6b, 0x3d, 0xff, 0x32, 0x34, 0xbd, 0xfe, 0xf5, 0xa0, 0xbd,
        0x02, 0x5a, 0x6d, 0xbc, 0x87, 0xb7, 0x37, 0x3d, 0x1a, 0xff, 0x3c, 0x3d,
        0x93, 0xc6, 0xdf, 0x3c, 0xdd, 0x99, 0x66, 0xbd, 0x88, 0x93, 0xa2, 0xbd,
        0xc0, 0x11, 0x3d, 0xbc, 0x42, 0xc2, 0x5d, 0xbd, 0xbd, 0xc8, 0x34, 0xbe,
        0x9e, 0xad, 0x06, 0xbe, 0xcc, 0x75, 0x04, 0x3e, 0xd7, 0xd8, 0x31, 0xbd,
        0x30, 0x22, 0x10, 0xbd, 0xb8, 0x02, 0x04, 0xbe, 0x67, 0x01, 0x82, 0xbc,
        0xf8, 0xdc, 0x36, 0xbe, 0x4b, 0xa3, 0x69, 0x3b, 0x59, 0x75, 0x34, 0xbd,
        0xe8, 0x42, 0xdb, 0x3c, 0x39, 0xcf, 0x92, 0xbd, 0xdd, 0x05, 0x05, 0x3d,
        0xa9, 0xfb, 0x16, 0xbe, 0x18, 0x7d, 0x04, 0xbe, 0x0e, 0x6f, 0xee, 0xbd,
        0xe9, 0x96, 0x0a, 0x3e, 0x0e, 0xac, 0x93, 0x3d, 0x03, 0xab, 0xdb, 0x3d,
        0x61, 0xac, 0x23, 0xbe, 0x14, 0x73, 0xc0, 0x3c, 0x67, 0x81, 0xd1, 0xbd,
        0xb8, 0x04, 0x31, 0xbe, 0x34, 0xe2, 0xa3, 0x3d, 0x74, 0x75, 0xf6, 0xbd,
        0x03, 0x5b, 0x44, 0x3d, 0xe5, 0x39, 0x13, 0xbe, 0x42, 0xbc, 0xeb, 0xbd,
        0xcf, 0x36, 0xbf, 0xbd, 0xce, 0x35, 0x5e, 0x3d, 0x3f, 0xa6, 0xe3, 0xbd,
        0x21, 0xca, 0x72, 0xbd, 0xcc, 0xa5, 0x32, 0xbe, 0x8b, 0x87, 0xbc, 0x3b,
        0x25, 0xc7, 0x09, 0x3c, 0x92, 0xa2, 0xaa, 0xbd, 0x84, 0xa9, 0x00, 0xbe,
        0xa7, 0x94, 0x07, 0x3d, 0x74, 0xec, 0xa3, 0x3c, 0xf1, 0xcf, 0x21, 0xbe,
        0x35, 0x95, 0xcf, 0xbd, 0x17, 0xc1, 0xb1, 0x3d, 0x5f, 0x62, 0x3b, 0x3c,
        0x16, 0xe4, 0x04, 0xbd, 0x72, 0x5b, 0x0e, 0xbd, 0x60, 0xc7, 0x03, 0xbe,
        0x5d, 0x5b, 0x3f, 0xbd, 0x7b, 0x70, 0xfb, 0x3d, 0xd2, 0xbc, 0x14, 0x3d,
        0x0e, 0xb1, 0x25, 0xbe, 0xab, 0xff, 0xbf, 0xbc, 0xf1, 0x98, 0xa5, 0xbd,
        0x61, 0x10, 0x01, 0xbe, 0x47, 0x3d, 0x9f, 0x3c, 0x5d, 0x8d, 0xe0, 0x3b,
        0xb6, 0x3a, 0x3f, 0xbe, 0x74, 0x03, 0xcc, 0xbc, 0xe0, 0xb7, 0xaa, 0xbd,
        0x36, 0x2c, 0x7a, 0x3d, 0x8f, 0x58, 0x2d, 0x3d, 0x90, 0x4e, 0x17, 0xbe,
        0xb3, 0x32, 0xd0, 0xbd, 0x6f, 0xb5, 0x1a, 0xbd, 0x66, 0x18, 0x04, 0x3c,
        0x1b, 0x99, 0x31, 0x3d, 0xe5, 0xea, 0xf7, 0xbd, 0xe0, 0x9e, 0xd7, 0xbd,
        0x3c, 0x50, 0x06, 0xbe, 0xe3, 0x6b, 0x3f, 0xbe, 0xe2, 0x62, 0x4b, 0x3d,
        0x97, 0xe8, 0xbc, 0x3d, 0x71, 0xd6, 0xb1, 0xbd, 0xe5, 0xc1, 0x06, 0xbe,
        0x29, 0x6f, 0x7f, 0x39, 0x3f, 0x5d, 0x0e, 0xbe, 0x34, 0x0a, 0x34, 0xbd,
        0xe0, 0xb6, 0x0b, 0xbe, 0xb2, 0xbd, 0x7f, 0xbd, 0x67, 0x22, 0x33, 0x3d,
        0x6a, 0xd7, 0xac, 0x3d, 0x75, 0x72, 0xa5, 0x3d, 0x0d, 0xc0, 0x10, 0xbe,
        0xc0, 0xee, 0x68, 0xbd, 0xcd, 0x1f, 0x0f, 0x3e, 0x4a, 0xe2, 0xf6, 0xbd,
        0x20, 0xf1, 0xc3, 0xbd, 0x5b, 0x54, 0x05, 0xbe, 0xa2, 0xf7, 0x68, 0xbc,
        0x75, 0x94, 0xa4, 0xbd, 0x58, 0x6b, 0xc2, 0x3d, 0x9b, 0x40, 0xa0, 0xbd,
        0x3c, 0xb3, 0x14, 0x3d, 0xcf, 0x60, 0xcc, 0xbd, 0x45, 0x6c, 0x35, 0x3d,
        0xda, 0xa3, 0xc2, 0xbd, 0x74, 0x9c, 0x6b, 0x3d, 0x9d, 0x7a, 0x3b, 0xbe,
        0xeb, 0x20, 0x1c, 0xbe, 0x8a, 0x83, 0x92, 0xbd, 0x76, 0xaa, 0x2a, 0x3e,
        0x27, 0x32, 0xcc, 0xbd, 0x18, 0x29, 0xa6, 0xbc, 0x5b, 0xa8, 0xf7, 0xbd,
        0x82, 0x61, 0xa6, 0xbd, 0xf3, 0x87, 0xbb, 0xbd, 0x72, 0xa3, 0x8f, 0x3c,
        0x0c, 0xeb, 0x98, 0xbd, 0x66, 0x52, 0x3e, 0xbe, 0x74, 0xb1, 0x18, 0x3d,
        0x4f, 0x80, 0x5d, 0xbe, 0x50, 0x67, 0x6a, 0xbe, 0x56, 0x05, 0x29, 0x3c,
        0x2d, 0x4e, 0xfa, 0xbc, 0xe0, 0x47, 0x15, 0xbe, 0x87, 0x39, 0x49, 0x3d,
        0xa0, 0x67, 0x15, 0xbe, 0x20, 0x50, 0xe2, 0xbd, 0x1f, 0xc1, 0xcd, 0xbc,
        0x1d, 0x7f, 0x9a, 0x3d, 0xdf, 0x49, 0x00, 0x3e, 0x17, 0x5d, 0x65, 0xbd,
        0x4f, 0x70, 0x02, 0xbe, 0x35, 0xd4, 0x7b, 0x3d, 0x11, 0xae, 0x36, 0x3d,
        0x57, 0x87, 0x52, 0x3d, 0x56, 0xab, 0xdf, 0xbd, 0xc0, 0x03, 0x98, 0x3d,
        0x3d, 0x24, 0xdf, 0x3b, 0x74, 0xd5, 0xde, 0xbd, 0xd9, 0x54, 0xb9, 0x3c,
        0x37, 0x98, 0x30, 0xbe, 0xd0, 0x04, 0x05, 0xbe, 0xd4, 0x12, 0xad, 0x3d,
        0x29, 0xcf, 0x2a, 0xbe, 0x89, 0xaa, 0x50, 0xbe, 0x14, 0x3d, 0xd0, 0xbd,
        0x63, 0x12, 0xc1, 0xbd, 0xd5, 0xa6, 0x6e, 0xbc, 0xd2, 0x40, 0x1a, 0xbe,
        0xce, 0xe2, 0xb9, 0xbd, 0x03, 0x13, 0x02, 0xbd, 0xb5, 0x51, 0x29, 0xbd,
        0x33, 0x32, 0x57, 0x3d, 0x95, 0xc8, 0xc1, 0xbd, 0xda, 0x4a, 0x7c, 0x3d,
        0x07, 0x95, 0xd8, 0xbc, 0xca, 0xb0, 0x8c, 0xbd, 0x39, 0xf8, 0x04, 0xbe,
        0x3c, 0xb5, 0x5c, 0x3c, 0xc1, 0xcb, 0x2d, 0x3c, 0xe6, 0x3c, 0x53, 0x3d,
        0xe0, 0x4e, 0x29, 0x3d, 0x66, 0x24, 0x5c, 0xbe, 0xba, 0x48, 0xcf, 0x3c,
        0x8e, 0x7f, 0x93, 0x3b, 0x75, 0xbd, 0x13, 0xbe, 0xef, 0x2a, 0x76, 0xbd,
        0x26, 0x32, 0x1a, 0xbe, 0xee, 0x7f, 0x16, 0xbd, 0xd7, 0x83, 0xf3, 0xbb,
        0xf9, 0x60, 0xc0, 0xbc, 0x01, 0xaa, 0x99, 0xbc, 0x1d, 0x82, 0xa5, 0xbd,
        0x06, 0x28, 0xed, 0xbc, 0x6a, 0xa8, 0xb7, 0x3c, 0xfd, 0xcb, 0x15, 0x3d,
        0x18, 0x37, 0xe1, 0xbd, 0xec, 0xf5, 0x0c, 0xbe, 0x3d, 0xf5, 0x2e, 0x3d,
        0xac, 0x91, 0x74, 0x3e, 0xf7, 0x2f, 0x90, 0xbe, 0xda, 0xe0, 0x48, 0xbe,
        0x25, 0x00, 0x0d, 0x3d, 0xe4, 0xca, 0x17, 0xbd, 0x28, 0x3e, 0x32, 0x3d,
        0x3d, 0xc6, 0x7b, 0x3e, 0xde, 0x9b, 0xe9, 0xbd, 0x91, 0xa4, 0xec, 0x3d,
        0xc4, 0x30, 0xc7, 0xbd, 0x88, 0xc3, 0xdc, 0xbc, 0x56, 0x26, 0x1c, 0xbd,
        0x20, 0xda, 0xfd, 0xbd, 0xf7, 0x2b, 0xaa, 0xbc, 0x00, 0xbe, 0xe9, 0x3d,
        0x1a, 0x62, 0xe6, 0x3e, 0xf9, 0x17, 0x1f, 0x3e, 0xa5, 0xf1, 0x70, 0xbe,
        0x01, 0x07, 0x1a, 0x3e, 0xe4, 0x95, 0x84, 0x3d, 0x34, 0x85, 0x7e, 0x3e,
        0xe0, 0xd0, 0x99, 0xbb, 0x71, 0x46, 0x81, 0xbd, 0x0a, 0x12, 0x0c, 0xbe,
        0xc0, 0x1d, 0xe8, 0xbc, 0x2e, 0xa4, 0xe3, 0xbd, 0x53, 0xc4, 0x8e, 0x3d,
        0x61, 0x41, 0xb6, 0xbc, 0x89, 0xa9, 0xcc, 0x3d, 0x6d, 0xbc, 0xe0, 0xb9,
        0xae, 0xd4, 0x21, 0xbe, 0x5f, 0xa1, 0xff, 0xbd, 0x48, 0x98, 0x7d, 0xbe,
        0xe0, 0x8f, 0x78, 0xbe, 0xd2, 0x74, 0x8c, 0x3d, 0x10, 0xa4, 0x4a, 0x3e,
        0x7d, 0x85, 0x02, 0xbd, 0xba, 0x98, 0x28, 0xbe, 0x6a, 0x8a, 0x89, 0x3d,
        0xec, 0x3c, 0x12, 0x3d, 0xfe, 0x74, 0x1a, 0x3e, 0x20, 0x3d, 0x39, 0xbd,
        0x02, 0x09, 0xb0, 0xbd, 0x07, 0x3c, 0xb6, 0xbc, 0x4d, 0x82, 0x29, 0xbd,
        0x0e, 0x58, 0x51, 0xbe, 0xa1, 0x68, 0xa6, 0x3c, 0xbe, 0xc8, 0x26, 0xbe,
        0xd9, 0xcd, 0x3c, 0xbe, 0x5e, 0xd4, 0xde, 0x3d, 0x40, 0x3d, 0xeb, 0x3b,
        0x7b, 0x3a, 0x1e, 0xbe, 0xb1, 0x19, 0x4f, 0xbe, 0x41, 0xd6, 0x61, 0xbd,
        0x59, 0x62, 0x44, 0x3a, 0x57, 0x4c, 0xc2, 0xbc, 0x04, 0x7e, 0x10, 0x3e,
        0x9e, 0x3d, 0x67, 0x3d, 0x80, 0x00, 0x88, 0xbc, 0x55, 0x01, 0xe9, 0x3d,
        0xa8, 0xfa, 0x53, 0xbe, 0x06, 0xa2, 0x24, 0xbe, 0xb0, 0x33, 0x84, 0xbd,
        0x7b, 0x29, 0x5e, 0xbe, 0xfd, 0xb7, 0xf5, 0xbd, 0x5b, 0x49, 0x1d, 0xbd,
        0x54, 0x30, 0xb4, 0xbd, 0xe1, 0x20, 0x77, 0xbe, 0x88, 0xc5, 0x3a, 0xbc,
        0xd9, 0x2c, 0xd1, 0xbd, 0x2c, 0xb6, 0xcf, 0xbc, 0xbc, 0x46, 0x8b, 0x3d,
        0x1a, 0xd5, 0x8e, 0x3d, 0x24, 0x20, 0xe2, 0xbd, 0xd2, 0x3d, 0xdf, 0xbd,
        0xb5, 0x7a, 0x92, 0xbc, 0xbb, 0x7a, 0x8b, 0xbc, 0x52, 0x12, 0x3b, 0xbe,
        0xf1, 0xf0, 0x11, 0x3e, 0xcf, 0xe2, 0xc9, 0x3d, 0x97, 0x9b, 0xa2, 0xbc,
        0x26, 0xe0, 0xb8, 0x3d, 0xaa, 0x6e, 0x1d, 0xbe, 0x2e, 0xdd, 0x93, 0xbc,
        0x70, 0x17, 0xd7, 0x3c, 0x25, 0x38, 0x59, 0x3d, 0x2d, 0x13, 0x15, 0xbe,
        0xd9, 0x80, 0x5f, 0x3c, 0x4f, 0x7c, 0xb9, 0x3d, 0x08, 0xef, 0x40, 0xbe,
        0x42, 0x6b, 0x01, 0xbe, 0xb7, 0x40, 0x9b, 0x3d, 0xf8, 0x48, 0xfe, 0x3d,
        0xd8, 0x7e, 0x87, 0xbe, 0xe9, 0x6b, 0x5e, 0xbd, 0x6d, 0xe4, 0x83, 0xbe,
        0x06, 0x9b, 0x3b, 0xbe, 0x07, 0x07, 0x88, 0x3e, 0xac, 0x3b, 0xae, 0xbd,
        0x8f, 0x13, 0x8c, 0x3d, 0xde, 0xc7, 0x49, 0x3d, 0x8e, 0x79, 0xa5, 0xbc,
        0x4c, 0xa9, 0x92, 0xbd, 0xe4, 0x28, 0x9e, 0xbc, 0x44, 0xce, 0xa8, 0xbc,
        0xb0, 0x06, 0xd7, 0x3d, 0xf0, 0x8e, 0x06, 0x3d, 0xaf, 0x44, 0x05, 0xbe,
        0xa8, 0x54, 0x3a, 0xbe, 0xd7, 0xc3, 0x01, 0x3d, 0x4c, 0x9b, 0xa0, 0x3d,
        0x56, 0xcd, 0x88, 0xbd, 0x73, 0x71, 0xb3, 0xbd, 0x6a, 0xea, 0x49, 0x3d,
        0xb3, 0xf2, 0xe7, 0xbd, 0x19, 0x14, 0x08, 0xbe, 0xf0, 0x26, 0x84, 0x3d,
        0xba, 0xd7, 0x38, 0xbd, 0xd2, 0x53, 0x4a, 0xbc, 0xf0, 0x90, 0xb3, 0xbd,
        0x7a, 0x95, 0x04, 0xbe, 0xc8, 0x9b, 0xa8, 0xbd, 0x23, 0xbf, 0xa7, 0x3d,
        0x4f, 0xea, 0x2d, 0xbe, 0x4a, 0xef, 0x2a, 0x3d, 0x49, 0x52, 0x80, 0xbd,
        0x44, 0x49, 0xfc, 0xbd, 0x60, 0x47, 0x14, 0xbd, 0xf1, 0x8a, 0xe0, 0xbd,
        0x33, 0x8b, 0x82, 0x3d, 0x3c, 0xb7, 0x60, 0xbe, 0x5d, 0xc7, 0xae, 0x3d,
        0x6b, 0x95, 0x2b, 0xbe, 0xc7, 0xcb, 0x18, 0xbe, 0x64, 0x18, 0xa8, 0xbd,
        0xfa, 0x80, 0x1e, 0xbd, 0xd8, 0x77, 0xd6, 0x3c, 0x69, 0xad, 0xd3, 0xbd,
        0xfa, 0x6b, 0x0b, 0xbd, 0x44, 0x45, 0x01, 0x3e, 0x68, 0xd0, 0x13, 0xbc,
        0x80, 0x6b, 0xd9, 0x3d, 0xde, 0xb8, 0xab, 0xbd, 0xf8, 0x9b, 0x99, 0xbd,
        0x1f, 0xee, 0x65, 0xbd, 0xd4, 0x5a, 0xf3, 0x3d, 0xab, 0x6b, 0x0c, 0xbe,
        0x5a, 0xc7, 0xe0, 0x3d, 0x98, 0x14, 0x9c, 0xbd, 0x18, 0xce, 0x3c, 0xbe,
        0x6b, 0xb7, 0x23, 0xbe, 0x2e, 0x79, 0x92, 0x3d, 0xf5, 0x74, 0x24, 0xbe,
        0x04, 0x5f, 0xf0, 0x3d, 0x1d, 0xfd, 0x37, 0xbd, 0x64, 0x48, 0xba, 0xbc,
        0x9a, 0x4f, 0xa7, 0xbd, 0xac, 0x54, 0xdc, 0xbb, 0xe7, 0xe0, 0x8b, 0xbc,
        0xb5, 0x14, 0xf7, 0x3c, 0x41, 0x90, 0x7b, 0x3d, 0xb4, 0x3b, 0x8d, 0xbc,
        0xc0, 0x89, 0xa0, 0x3b, 0x43, 0x3a, 0x62, 0x3b, 0x74, 0xc9, 0x1d, 0xbe,
        0xaf, 0x87, 0x83, 0xbd, 0xdb, 0x05, 0x2a, 0x3e, 0x32, 0x06, 0xce, 0x3d,
        0x6e, 0x18, 0x1f, 0x3e, 0xa2, 0x2e, 0xf1, 0x3d, 0x2f, 0x73, 0x3d, 0x3d,
        0xcc, 0x88, 0xf6, 0x3d, 0xbd, 0x01, 0x10, 0xbe, 0x68, 0x91, 0xd4, 0xbd,
        0xb2, 0xa0, 0x14, 0x3b, 0xb9, 0x78, 0xe3, 0x3c, 0xea, 0x13, 0x4d, 0x3d,
        0xb0, 0x7c, 0x2f, 0xbd, 0x78, 0x15, 0x4a, 0xbe, 0x3c, 0x70, 0x1d, 0x3d,
        0x62, 0x32, 0x0d, 0xbe, 0x32, 0x04, 0xd8, 0x3c, 0xbe, 0xa5, 0x83, 0x3c,
        0x75, 0x03, 0x2b, 0x3d, 0x32, 0x28, 0x4d, 0x3c, 0x9e, 0x61, 0x94, 0x3d,
        0xc6, 0x17, 0x08, 0xbd, 0xd4, 0xf7, 0x12, 0xbc, 0xf7, 0x27, 0x8e, 0xbe,
        0x2c, 0x39, 0x02, 0xbe, 0x47, 0xed, 0x1a, 0xbe, 0x0e, 0x80, 0xc8, 0xbd,
        0x06, 0x3b, 0x62, 0xbd, 0x30, 0x92, 0xe5, 0x3d, 0xfe, 0x2d, 0x30, 0xbd,
        0x44, 0xd2, 0x36, 0xbd, 0xa8, 0x25, 0x67, 0xbe, 0x64, 0x42, 0x58, 0x3a,
        0xa9, 0x07, 0x08, 0x3e, 0xef, 0xd8, 0xa1, 0x3d, 0x9d, 0xb5, 0x12, 0xbb,
        0xbb, 0xf9, 0xed, 0x3d, 0x58, 0x46, 0xb3, 0x3c, 0x2a, 0x79, 0xd8, 0x3c,
        0x92, 0xfa, 0xd3, 0xbc, 0xfc, 0xd2, 0xe3, 0xbc, 0x00, 0x1d, 0x0c, 0x3e,
        0x16, 0xc3, 0x76, 0xbe, 0xb7, 0x69, 0xdd, 0xbd, 0x82, 0xfc, 0x99, 0xbd,
        0x52, 0x82, 0x3e, 0xbe, 0xb0, 0x71, 0xc1, 0xbc, 0x28, 0x79, 0xee, 0xbd,
        0x45, 0x77, 0x45, 0xbb, 0x33, 0xbd, 0x82, 0xbd, 0x46, 0x42, 0x67, 0xbd,
        0x17, 0xe7, 0x3e, 0xbb, 0xa2, 0x15, 0x06, 0x3e, 0x4c, 0x21, 0xcf, 0x3d,
        0x27, 0x67, 0x94, 0x3d, 0x1d, 0x3e, 0xca, 0x3a, 0x82, 0x8a, 0x07, 0xbd,
        0x01, 0x32, 0xcf, 0x3d, 0x4f, 0x23, 0x4b, 0xbc, 0xb6, 0xa9, 0xce, 0x3d,
        0x56, 0xe2, 0x8a, 0xbc, 0xb9, 0x83, 0xdc, 0xbd, 0xe5, 0x13, 0x96, 0xbd,
        0xef, 0xd4, 0x2e, 0xbe, 0x8d, 0x95, 0x69, 0xbe, 0x95, 0xe1, 0x9b, 0x3d,
        0x27, 0xf7, 0xdc, 0x3c, 0x73, 0x63, 0x82, 0xbd, 0x2d, 0xb6, 0x8f, 0xbd,
        0xf7, 0x41, 0xa2, 0xbb, 0xd5, 0xcc, 0xef, 0x3b, 0x14, 0xaa, 0x29, 0x3e,
        0xd8, 0x2f, 0x66, 0xbe, 0x34, 0x17, 0x6f, 0x3d, 0x36, 0x41, 0x83, 0xbe,
        0x2a, 0x1a, 0x79, 0x3d, 0xaf, 0x97, 0x34, 0xbe, 0x46, 0xda, 0x93, 0xbd,
        0x21, 0x31, 0x0e, 0xbe, 0x22, 0x70, 0x28, 0xbe, 0xb9, 0x7e, 0x2d, 0xbb,
        0x3e, 0x78, 0xae, 0x3d, 0xfb, 0x6d, 0xa1, 0x3d, 0x9d, 0xa1, 0x94, 0xbd,
        0xa6, 0x0c, 0x69, 0xbe, 0x8c, 0x94, 0xee, 0xbd, 0x6e, 0xc5, 0x62, 0xba,
        0x80, 0x70, 0x2f, 0xbe, 0x37, 0x4d, 0xd8, 0xbd, 0x8a, 0x07, 0xe9, 0xbd,
        0x59, 0x5b, 0x39, 0xbe, 0x8d, 0x18, 0x8d, 0xbd, 0xed, 0x38, 0xfa, 0xbd,
        0xcc, 0x7f, 0xf0, 0x3b, 0x04, 0x08, 0x06, 0xbe, 0xf2, 0x52, 0xeb, 0xbd,
        0x45, 0x08, 0x7d, 0xbe, 0x81, 0x1e, 0x40, 0xbe, 0xe8, 0xaa, 0xdd, 0x3c,
        0x5b, 0x8a, 0xdf, 0xbb, 0xcc, 0xe4, 0x02, 0xbe, 0x4c, 0x49, 0x02, 0xbe,
        0xa4, 0x3e, 0xd9, 0x3d, 0x2c, 0x21, 0xbd, 0xbd, 0x90, 0xb0, 0x70, 0x3c,
        0xb5, 0xf2, 0x77, 0xbd, 0x63, 0x2f, 0x82, 0x3d, 0x9d, 0x84, 0x80, 0xbd,
        0x1f, 0xb1, 0xfe, 0xbd, 0x0c, 0x19, 0x0f, 0xbd, 0xdd, 0x88, 0x23, 0xbe,
        0x23, 0x06, 0x32, 0xbd, 0xd7, 0x05, 0x08, 0xbe, 0x08, 0x07, 0x52, 0x3c,
        0x4d, 0x00, 0x04, 0x3e, 0xaf, 0xa6, 0x48, 0xbc, 0xcc, 0x83, 0x23, 0xbc,
        0xbe, 0x1a, 0x26, 0xbd, 0x55, 0x1f, 0x4a, 0x3b, 0x34, 0x7c, 0x8a, 0x3d,
        0x6c, 0xb0, 0x03, 0x3d, 0x66, 0x41, 0x89, 0x3d, 0x6c, 0xd1, 0x12, 0xbe,
        0xa3, 0x4e, 0xee, 0xbb, 0x5e, 0x86, 0x68, 0xbe, 0x89, 0xa5, 0x93, 0x3d,
        0xd4, 0x88, 0xfc, 0x3c, 0xdd, 0xcd, 0x1a, 0xbe, 0xab, 0x1e, 0x56, 0xbe,
        0x2f, 0x8b, 0x96, 0x3d, 0x9a, 0x21, 0xc1, 0xbd, 0x75, 0xf5, 0xa3, 0x3c,
        0xfa, 0xe1, 0xf2, 0xbd, 0x51, 0xfb, 0x20, 0x3e, 0x4a, 0x1b, 0x14, 0xbe,
        0x5a, 0x59, 0x0d, 0xbe, 0x12, 0x3e, 0xc7, 0xbd, 0xf8, 0xe5, 0x99, 0x3d,
        0xe5, 0xd9, 0x1b, 0xbe, 0x67, 0x17, 0x41, 0x3d, 0x9c, 0xd7, 0x26, 0x3d,
        0xba, 0x94, 0x93, 0xbd, 0x0d, 0x5a, 0x09, 0xbe, 0x18, 0x15, 0x98, 0xbc,
        0x14, 0xc8, 0x56, 0xbd, 0x03, 0xc2, 0x53, 0x3d, 0xca, 0xcb, 0xa9, 0xbc,
        0x1e, 0x52, 0xf8, 0xbd, 0xf6, 0x22, 0x9d, 0xbd, 0x85, 0x2f, 0x15, 0x3e,
        0xf8, 0xb4, 0xa8, 0x3c, 0x08, 0x24, 0xdd, 0x3d, 0x20, 0x07, 0x3e, 0xbc,
        0x9b, 0x78, 0xbd, 0x3c, 0xc2, 0x0f, 0x81, 0xbd, 0xc6, 0xe6, 0x03, 0xbe,
        0x31, 0xd8, 0x77, 0xbe, 0x7e, 0x0b, 0x46, 0x3d, 0x72, 0x6a, 0xd9, 0xbc,
        0xc6, 0x02, 0x34, 0xbe, 0x0e, 0xca, 0xe3, 0xbb, 0x94, 0x80, 0x10, 0xbc,
        0xfe, 0xd3, 0xc1, 0xbd, 0x7d, 0x10, 0x2b, 0x3d, 0x56, 0x8b, 0x91, 0x3c,
        0x5c, 0xfd, 0x69, 0xbd, 0x63, 0xb2, 0xbf, 0xbc, 0x41, 0x19, 0xab, 0xbd,
        0x3a, 0x1c, 0x51, 0xbe, 0x0b, 0xc1, 0xdb, 0xbc, 0xef, 0xe7, 0xfe, 0xba,
        0x13, 0x04, 0x07, 0xbd, 0xd4, 0x8c, 0x33, 0x3d, 0x0d, 0xca, 0xd9, 0xbd,
        0xee, 0xa3, 0x08, 0x3e, 0x69, 0xc7, 0xed, 0x3b, 0xac, 0xb9, 0x60, 0xbd,
        0x3e, 0xb5, 0x1d, 0xbd, 0xd5, 0xba, 0x73, 0x3c, 0x30, 0x35, 0x02, 0xbe,
        0x49, 0xba, 0xbe, 0xbc, 0x4d, 0x80, 0xb5, 0xbc, 0x8b, 0x4c, 0x8e, 0xbd,
        0x8c, 0x79, 0x77, 0xbd, 0xd7, 0x8b, 0x51, 0xbe, 0x98, 0xc1, 0xc3, 0xbd,
        0x6c, 0x78, 0xe8, 0x3c, 0xb2, 0x73, 0x59, 0xbe, 0xb3, 0x65, 0x5b, 0x3d,
        0x6e, 0x39, 0x53, 0x3c, 0xaf, 0x44, 0x2d, 0xbe, 0x0c, 0x7c, 0x1b, 0xbd,
        0x09, 0x03, 0x46, 0xbe, 0x1a, 0x8f, 0xea, 0x3d, 0x8f, 0x57, 0x0b, 0x3e,
        0x39, 0x79, 0x09, 0xbe, 0x5c, 0xfe, 0x96, 0xbc, 0x90, 0xac, 0x98, 0x3c,
        0xa2, 0xd1, 0x75, 0x3d, 0x35, 0x91, 0xba, 0xbd, 0xa7, 0x87, 0x26, 0xbd,
        0x14, 0x31, 0xc3, 0xbd, 0x7d, 0xfd, 0x9c, 0xbd, 0xf6, 0xdb, 0x0e, 0xbe,
        0x17, 0x72, 0x4c, 0xbc, 0xc4, 0x55, 0x54, 0xbc, 0xf3, 0xa9, 0x05, 0xbe,
        0x1c, 0xa1, 0x60, 0xbe, 0xff, 0x6e, 0x6c, 0xbc, 0x3a, 0x4c, 0x02, 0xbe,
        0x6c, 0x09, 0xb2, 0x3d, 0x93, 0xa8, 0xc1, 0xbd, 0x7d, 0x9d, 0x75, 0x3d,
        0x03, 0x2c, 0xec, 0x3b, 0xdc, 0xbc, 0xb0, 0x3d, 0x15, 0xff, 0x9e, 0xbd,
        0x5c, 0xbb, 0x10, 0xbe, 0xe5, 0x57, 0xe3, 0x3d, 0x22, 0x61, 0xb2, 0x3b,
        0x55, 0xe2, 0x76, 0xbe, 0xbd, 0xd0, 0xaf, 0xbc, 0x28, 0xe8, 0xfe, 0xbd,
        0x37, 0xa7, 0x88, 0xbd, 0xae, 0x29, 0xab, 0xbd, 0x9a, 0x9b, 0x19, 0xbc,
        0xf5, 0xf7, 0xaf, 0x3d, 0xcf, 0x93, 0x1e, 0xbe, 0x6c, 0xee, 0xdc, 0x3d,
        0xdb, 0xcf, 0xe3, 0x3c, 0x6d, 0x41, 0x07, 0x3e, 0x57, 0x30, 0x60, 0xbd,
        0x3b, 0x55, 0x50, 0xbd, 0xee, 0xd1, 0x42, 0xbe, 0x66, 0x76, 0x2d, 0xbd,
        0x38, 0xd9, 0xb9, 0x3d, 0xde, 0xc0, 0x16, 0x37, 0xce, 0x6a, 0x7c, 0xbe,
        0x45, 0xd1, 0x0a, 0xba, 0x19, 0x49, 0x08, 0x3e, 0xfc, 0x76, 0xab, 0xbd,
        0x37, 0xc6, 0x3f, 0xbe, 0xe4, 0x80, 0xd2, 0x3d, 0x58, 0x8a, 0xd0, 0xbd,
        0x9b, 0x80, 0x45, 0xbe, 0x68, 0xb3, 0xfb, 0xbd, 0x93, 0x5f, 0x19, 0xbd,
        0xb3, 0xda, 0x07, 0x3e, 0x84, 0xff, 0x0f, 0xbe, 0x2e, 0x26, 0x2c, 0xbe,
        0x6c, 0xa3, 0x9e, 0xbd, 0x69, 0x65, 0x93, 0x3d, 0x00, 0x24, 0x13, 0x3d,
        0xca, 0x32, 0x04, 0xbe, 0x76, 0xdd, 0x89, 0xbc, 0x64, 0x4f, 0xba, 0xbd,
        0xd3, 0x22, 0x6e, 0x3d, 0xd9, 0x20, 0xaf, 0xbb, 0xd3, 0xc7, 0x04, 0xbd,
        0x24, 0xc4, 0xdc, 0x3c, 0xae, 0x31, 0xcc, 0x3b, 0xc2, 0xfc, 0x87, 0xbd,
        0xa2, 0x80, 0x88, 0x3d, 0x36, 0xbb, 0x34, 0x3d, 0x28, 0x19, 0x84, 0x3d,
        0x4f, 0x6c, 0x3f, 0xbe, 0x1b, 0x78, 0x10, 0xbe, 0x8c, 0x10, 0x1f, 0xbe,
        0xf8, 0xe0, 0xeb, 0x3d, 0x48, 0x8f, 0xd4, 0xbd, 0x09, 0x41, 0x83, 0x3d,
        0x42, 0x10, 0xce, 0x3d, 0xe6, 0x6a, 0xf1, 0xbb, 0xe4, 0x4a, 0x5c, 0xbd,
        0xc2, 0xac, 0xd2, 0xbc, 0xb2, 0x00, 0x09, 0x3e, 0x09, 0x88, 0xc1, 0xbd,
        0x0f, 0x85, 0xd7, 0x3d, 0x6b, 0xbc, 0x81, 0xbd, 0xbe, 0x9e, 0xca, 0x3d,
        0xd0, 0x4b, 0x96, 0x3d, 0xcc, 0xe6, 0xc9, 0xbd, 0x1c, 0xd0, 0x3e, 0xbd,
        0xd1, 0x14, 0x7f, 0xbd, 0xf2, 0x61, 0x1e, 0xbd, 0xf3, 0xb4, 0x7c, 0xba,
        0x58, 0x8d, 0x77, 0x3c, 0xf1, 0xb4, 0x90, 0x3c, 0x2b, 0x44, 0xfa, 0xbd,
        0xcf, 0x92, 0x02, 0xbe, 0x97, 0xbd, 0xbb, 0x3d, 0x5a, 0xba, 0x62, 0x3d,
        0x3d, 0x2f, 0x71, 0xbd, 0x97, 0x73, 0x27, 0x3c, 0x4a, 0x52, 0x12, 0x3c,
        0xfa, 0x0b, 0x81, 0x3d, 0x31, 0xe3, 0xbd, 0x3c, 0x56, 0x6e, 0x3f, 0xbe,
        0x7f, 0x23, 0xa5, 0xbd, 0x84, 0x91, 0x33, 0xbe, 0xbb, 0xce, 0x75, 0x3d,
        0x1a, 0x49, 0x89, 0xbd, 0xb4, 0x5f, 0x95, 0xbb, 0xe1, 0xef, 0xf7, 0xbd,
        0x6f, 0xa2, 0x23, 0xbe, 0x6e, 0x52, 0x0c, 0xbe, 0x64, 0xf3, 0xa2, 0xbb,
        0xbb, 0x71, 0xcb, 0x3d, 0x9a, 0x00, 0xd5, 0xbd, 0x85, 0x5b, 0x3f, 0x3d,
        0xbd, 0xa6, 0xeb, 0x3d, 0x24, 0xe1, 0xd2, 0xbd, 0x0c, 0x7f, 0x19, 0xbe,
        0xed, 0x1f, 0x91, 0x3d, 0xb1, 0x73, 0x29, 0xbe, 0xfd, 0x27, 0xaa, 0xbd,
        0x3c, 0x9d, 0xd5, 0xbd, 0x83, 0x1b, 0x60, 0x3d, 0x25, 0x2c, 0x66, 0x3d,
        0x1f, 0xbf, 0xc1, 0x3b, 0x52, 0xb0, 0x1b, 0x3d, 0xd5, 0xe6, 0xe4, 0xbd,
        0x8a, 0x7a, 0xa2, 0xbd, 0x9c, 0x8b, 0xb3, 0xbd, 0xa2, 0x43, 0xf1, 0xbd,
        0x76, 0xd1, 0x22, 0xbe, 0x1d, 0x39, 0x95, 0x3c, 0xd7, 0x43, 0xdb, 0xbd,
        0x5d, 0x99, 0x9d, 0x3d, 0xf2, 0x7f, 0x64, 0x3d, 0x46, 0x86, 0xed, 0xbd,
        0xab, 0x22, 0xa3, 0x3d, 0x16, 0x64, 0x1a, 0xbc, 0xe9, 0x54, 0x7d, 0xbd,
        0x34, 0x94, 0xa2, 0xbd, 0x1e, 0x57, 0x5c, 0xbe, 0xcd, 0xf8, 0x00, 0xbe,
        0x22, 0x69, 0x64, 0xbe, 0xaf, 0x26, 0xab, 0x3d, 0x3f, 0x2c, 0x19, 0x3b,
        0x12, 0x3e, 0x0d, 0x3d, 0x02, 0x88, 0xbf, 0x3d, 0xc0, 0x69, 0x12, 0x3d,
        0x19, 0x19, 0x69, 0x3d, 0x8d, 0xd5, 0x23, 0xbe, 0x6c, 0xe4, 0xd1, 0xbc,
        0x81, 0x71, 0x59, 0x3c, 0x80, 0x7f, 0x32, 0xbd, 0x9c, 0xf0, 0x24, 0xbe,
        0xf1, 0x26, 0x3a, 0xbe, 0xcd, 0xb1, 0x43, 0xbe, 0x15, 0xba, 0x08, 0xbe,
        0xf2, 0x0d, 0x12, 0xbe, 0xe1, 0x75, 0x69, 0xbe, 0xc3, 0x8b, 0x09, 0xbe,
        0x9d, 0x07, 0x16, 0xbe, 0x5e, 0xf8, 0xdc, 0xbd, 0xc3, 0x78, 0xc2, 0x3d,
        0xd8, 0x6d, 0xbf, 0x3d, 0x2f, 0xa0, 0xf2, 0x3a, 0x71, 0x6d, 0x50, 0xbe,
        0x1a, 0x97, 0x5c, 0xbe, 0x27, 0x50, 0xdb, 0xbd, 0x07, 0xd9, 0xff, 0xbd,
        0xec, 0x97, 0x86, 0xbb, 0xc0, 0xd5, 0x9f, 0x3d, 0x09, 0xbd, 0x71, 0xbe,
        0x4b, 0x62, 0x4d, 0xbe, 0x8a, 0x72, 0xac, 0xbd, 0xa9, 0xe8, 0x81, 0xbe,
        0x01, 0x2b, 0x40, 0x3c, 0x7f, 0xca, 0x4c, 0x3d, 0x8a, 0x7a, 0xa4, 0x3d,
        0xdd, 0x2c, 0x79, 0xbb, 0x29, 0x92, 0x9b, 0x3d, 0xdb, 0x60, 0xff, 0xbd,
        0x2b, 0x46, 0x4d, 0x3d, 0x59, 0xf7, 0x69, 0xbe, 0xe1, 0xb1, 0xe6, 0xbb,
        0x47, 0xe4, 0x0f, 0x3d, 0xcc, 0x54, 0x0e, 0x3d, 0x75, 0x61, 0x96, 0x3d,
        0xea, 0x41, 0x3c, 0x3d, 0xae, 0x05, 0x0f, 0xbd, 0x2d, 0x9e, 0x42, 0xbe,
        0x2b, 0xae, 0x9d, 0x3c, 0xb1, 0x24, 0xe9, 0x3d, 0x9c, 0xf3, 0xc8, 0xbc,
        0x3c, 0x51, 0x37, 0xbe, 0x2b, 0xad, 0x30, 0xbe, 0xb6, 0x67, 0xea, 0xbd,
        0x26, 0xea, 0xca, 0xbc, 0xf0, 0x5d, 0xa7, 0x3d, 0xfa, 0xee, 0x6e, 0xbe,
        0x61, 0xb3, 0x71, 0x3d, 0xe9, 0xd0, 0xec, 0x3d, 0x04, 0xa9, 0x98, 0x3d,
        0xdd, 0x13, 0x42, 0x3d, 0x61, 0x37, 0x55, 0xbe, 0xc9, 0x2d, 0xa8, 0xbd,
        0xc8, 0xa1, 0xec, 0xbd, 0xe6, 0xc3, 0x94, 0x3b, 0x7f, 0x79, 0x31, 0xbe,
        0xed, 0x1a, 0x54, 0xbd, 0x7a, 0x1c, 0xb9, 0xbd, 0x48, 0xc5, 0xc4, 0xbd,
        0xf3, 0xaf, 0xb9, 0x3d, 0x1b, 0x92, 0x22, 0x3d, 0xd2, 0x5c, 0xdb, 0xbd,
        0x3f, 0x29, 0xa5, 0xbd, 0x24, 0xce, 0xe1, 0x3d, 0x6d, 0xab, 0x4f, 0xbe,
        0x1e, 0xc7, 0xb4, 0x3c, 0xea, 0x55, 0x07, 0xbe, 0xcf, 0xe3, 0x57, 0xbd,
        0x68, 0x51, 0x71, 0x3d, 0xe1, 0x47, 0x0e, 0xbe, 0xf6, 0x7b, 0xf7, 0xbd,
        0xdd, 0x56, 0x0e, 0xbe, 0x24, 0xbe, 0x48, 0x3d, 0x87, 0xdb, 0x2b, 0xbc,
        0xbb, 0xde, 0x0e, 0xbe, 0xb6, 0x9b, 0x33, 0xbe, 0x6d, 0x1b, 0x35, 0xbe,
        0x31, 0xe5, 0x1b, 0xbe, 0x0d, 0xc1, 0x3e, 0xbe, 0xe0, 0x6e, 0x31, 0x3d,
        0x66, 0xab, 0x1c, 0xbc, 0x5b, 0x24, 0x0e, 0x3c, 0x14, 0x9c, 0x21, 0xbd,
        0x75, 0x41, 0x0b, 0x3d, 0x49, 0x5b, 0x7e, 0x3d, 0x89, 0x6a, 0x4d, 0xbc,
        0x59, 0x30, 0xd1, 0x3c, 0x92, 0x5f, 0x3c, 0x3d, 0x11, 0x0d, 0x91, 0x3c,
        0x8f, 0x33, 0x2d, 0xbe, 0xbb, 0x34, 0xa1, 0xbd, 0xbb, 0x45, 0xdb, 0xbb,
        0x3b, 0x0f, 0xa5, 0xbd, 0x0a, 0x09, 0xd9, 0x3d, 0x23, 0x94, 0xa7, 0xbb,
        0xd9, 0xc4, 0xfd, 0x3d, 0x41, 0x43, 0x80, 0xbe, 0x4b, 0x18, 0xec, 0xbd,
        0xb4, 0x9b, 0x23, 0x3d, 0x28, 0x11, 0x23, 0xbe, 0x0c, 0x3f, 0xcd, 0xbd,
        0x95, 0x16, 0xe3, 0xbd, 0x50, 0x12, 0x2d, 0xbe, 0x4a, 0x03, 0x6c, 0x3d,
        0x4e, 0xd2, 0xe9, 0xbd, 0xab, 0x82, 0x82, 0x3d, 0x9b, 0x43, 0x0e, 0x3d,
        0x33, 0x74, 0xdc, 0x3d, 0x26, 0xf3, 0x62, 0x3d, 0xb3, 0xee, 0x44, 0x3d,
        0x71, 0x50, 0x07, 0xbd, 0x05, 0x5e, 0xdb, 0xbd, 0xaf, 0x88, 0x0e, 0xbd,
        0x06, 0x63, 0xb4, 0x3d, 0x85, 0x5f, 0x41, 0xbe, 0xe8, 0xcd, 0x39, 0xbe,
        0xcc, 0x67, 0x42, 0xbe, 0xaa, 0x8d, 0x45, 0xbe, 0xe5, 0x36, 0x56, 0xbe,
        0xf1, 0x27, 0x98, 0x3c, 0xd9, 0xab, 0xe7, 0xbc, 0x50, 0x3d, 0x35, 0xbd,
        0xff, 0x1f, 0x77, 0xbd, 0x3a, 0xbe, 0xf6, 0x3d, 0xb2, 0xa6, 0x0b, 0xbe,
        0x2a, 0xcf, 0xc8, 0xbc, 0x71, 0x18, 0x5a, 0xbd, 0x1f, 0x9c, 0x13, 0xbe,
        0x71, 0xef, 0x40, 0xbd, 0xb4, 0x9e, 0xfb, 0xbd, 0x52, 0xeb, 0xff, 0xbb,
        0xa0, 0x38, 0xf5, 0xbd, 0x84, 0xb4, 0xc7, 0xbc, 0x65, 0x1f, 0x35, 0xbe,
        0x07, 0x39, 0x9c, 0xbd, 0xdf, 0xf6, 0xd6, 0x3d, 0xbc, 0x8b, 0x1d, 0xbe,
        0x6a, 0x9a, 0x10, 0xbd, 0x5b, 0x9c, 0x88, 0x3d, 0xc3, 0xe5, 0xef, 0xbc,
        0xb1, 0xcc, 0x43, 0xbe, 0x89, 0x93, 0xcf, 0xbd, 0x14, 0x40, 0x96, 0xbd,
        0xe0, 0x02, 0x0a, 0x3d, 0xa9, 0x21, 0x6a, 0xbe, 0x5c, 0x42, 0x69, 0xbe,
