// Automatically created from a TensorFlow Lite flatbuffer using the command:
// xxd -i pirids_model.tflite > pirids_model_data.cc
// See the README for a full description of the creation process.

// Keep model aligned to 8 bytes to guarantee aligned 64-bit accesses.
alignas(8) const unsigned char wallet_model_data[] =  {
        0x1c, 0x00, 0x00, 0x00, 0x54, 0x46, 0x4c, 0x33, 0x14, 0x00, 0x20, 0x00,
        0x04, 0x00, 0x08, 0x00, 0x0c, 0x00, 0x10, 0x00, 0x14, 0x00, 0x00, 0x00,
        0x18, 0x00, 0x1c, 0x00, 0x14, 0x00, 0x00, 0x00, 0x03, 0x00, 0x00, 0x00,
        0x18, 0x00, 0x00, 0x00, 0x2c, 0x00, 0x00, 0x00, 0x58, 0x01, 0x00, 0x00,
        0x2c, 0x00, 0x00, 0x00, 0x00, 0x01, 0x00, 0x00, 0x78, 0x00, 0x00, 0x00,
        0x05, 0x00, 0x00, 0x00, 0x94, 0x07, 0x00, 0x00, 0xb0, 0x06, 0x00, 0x00,
        0x4c, 0x04, 0x00, 0x00, 0x88, 0x03, 0x00, 0x00, 0x2c, 0x02, 0x00, 0x00,
        0x01, 0x00, 0x00, 0x00, 0x50, 0x01, 0x00, 0x00, 0x14, 0x00, 0x00, 0x00,
        0x9c, 0x4e, 0x00, 0x00, 0x98, 0x4e, 0x00, 0x00, 0xb4, 0x4d, 0x00, 0x00,
        0x28, 0x4d, 0x00, 0x00, 0xa4, 0x4c, 0x00, 0x00, 0x44, 0x4c, 0x00, 0x00,
        0xd8, 0x4b, 0x00, 0x00, 0x88, 0x13, 0x00, 0x00, 0x34, 0x12, 0x00, 0x00,
        0x58, 0x10, 0x00, 0x00, 0xfc, 0x07, 0x00, 0x00, 0x70, 0x4e, 0x00, 0x00,
        0x6c, 0x4e, 0x00, 0x00, 0x68, 0x4e, 0x00, 0x00, 0x64, 0x4e, 0x00, 0x00,
        0x60, 0x4e, 0x00, 0x00, 0x5c, 0x4e, 0x00, 0x00, 0x58, 0x4e, 0x00, 0x00,
        0x54, 0x4e, 0x00, 0x00, 0xbc, 0x00, 0x00, 0x00, 0x01, 0x00, 0x00, 0x00,
        0x10, 0x00, 0x00, 0x00, 0x00, 0x00, 0x0a, 0x00, 0x10, 0x00, 0x0c, 0x00,
        0x08, 0x00, 0x04, 0x00, 0x0a, 0x00, 0x00, 0x00, 0x0c, 0x00, 0x00, 0x00,
        0x1c, 0x00, 0x00, 0x00, 0x20, 0x00, 0x00, 0x00, 0x0f, 0x00, 0x00, 0x00,
        0x73, 0x65, 0x72, 0x76, 0x69, 0x6e, 0x67, 0x5f, 0x64, 0x65, 0x66, 0x61,
        0x75, 0x6c, 0x74, 0x00, 0x01, 0x00, 0x00, 0x00, 0x14, 0x00, 0x00, 0x00,
        0x01, 0x00, 0x00, 0x00, 0x24, 0x00, 0x00, 0x00, 0x08, 0x00, 0x0c, 0x00,
        0x08, 0x00, 0x04, 0x00, 0x08, 0x00, 0x00, 0x00, 0x11, 0x00, 0x00, 0x00,
        0x04, 0x00, 0x00, 0x00, 0x07, 0x00, 0x00, 0x00, 0x64, 0x65, 0x6e, 0x73,
        0x65, 0x5f, 0x31, 0x00, 0x02, 0xb3, 0xff, 0xff, 0x04, 0x00, 0x00, 0x00,
        0x0c, 0x00, 0x00, 0x00, 0x63, 0x6f, 0x6e, 0x76, 0x32, 0x64, 0x5f, 0x69,
        0x6e, 0x70, 0x75, 0x74, 0x00, 0x00, 0x00, 0x00, 0x01, 0x00, 0x00, 0x00,
        0x0c, 0x00, 0x00, 0x00, 0x08, 0x00, 0x0c, 0x00, 0x04, 0x00, 0x08, 0x00,
        0x08, 0x00, 0x00, 0x00, 0x08, 0x00, 0x00, 0x00, 0x13, 0x00, 0x00, 0x00,
        0x13, 0x00, 0x00, 0x00, 0x6d, 0x69, 0x6e, 0x5f, 0x72, 0x75, 0x6e, 0x74,
        0x69, 0x6d, 0x65, 0x5f, 0x76, 0x65, 0x72, 0x73, 0x69, 0x6f, 0x6e, 0x00,
        0x52, 0xb3, 0xff, 0xff, 0x04, 0x00, 0x00, 0x00, 0x10, 0x00, 0x00, 0x00,
        0x31, 0x2e, 0x35, 0x2e, 0x30, 0x00, 0x00, 0x00, 0x00, 0x00, 0x00, 0x00,
        0x00, 0x00, 0x00, 0x00, 0x0f, 0x00, 0x00, 0x00, 0x4d, 0x4c, 0x49, 0x52,
        0x20, 0x43, 0x6f, 0x6e, 0x76, 0x65, 0x72, 0x74, 0x65, 0x64, 0x2e, 0x00,
        0x00, 0x00, 0x0e, 0x00, 0x18, 0x00, 0x04, 0x00, 0x08, 0x00, 0x0c, 0x00,
        0x10, 0x00, 0x14, 0x00, 0x0e, 0x00, 0x00, 0x00, 0x14, 0x00, 0x00, 0x00,
        0x5c, 0x00, 0x00, 0x00, 0x60, 0x00, 0x00, 0x00, 0x64, 0x00, 0x00, 0x00,
        0x84, 0x00, 0x00, 0x00, 0x12, 0x00, 0x00, 0x00, 0xcc, 0x4c, 0x00, 0x00,
        0x80, 0x4c, 0x00, 0x00, 0x14, 0x4c, 0x00, 0x00, 0x90, 0x4b, 0x00, 0x00,
        0x10, 0x4b, 0x00, 0x00, 0x9c, 0x4a, 0x00, 0x00, 0x34, 0x4a, 0x00, 0x00,
        0xe0, 0x11, 0x00, 0x00, 0x84, 0x10, 0x00, 0x00, 0xa8, 0x0e, 0x00, 0x00,
        0xf8, 0x05, 0x00, 0x00, 0x14, 0x05, 0x00, 0x00, 0xf8, 0x03, 0x00, 0x00,
        0x4c, 0x03, 0x00, 0x00, 0xa8, 0x02, 0x00, 0x00, 0xe4, 0x01, 0x00, 0x00,
        0x20, 0x01, 0x00, 0x00, 0x84, 0x00, 0x00, 0x00, 0x01, 0x00, 0x00, 0x00,
        0x00, 0x00, 0x00, 0x00, 0x01, 0x00, 0x00, 0x00, 0x11, 0x00, 0x00, 0x00,
        0x08, 0x00, 0x00, 0x00, 0x60, 0x05, 0x00, 0x00, 0x80, 0x04, 0x00, 0x00,
        0x88, 0x03, 0x00, 0x00, 0xcc, 0x02, 0x00, 0x00, 0x40, 0x02, 0x00, 0x00,
        0x60, 0x01, 0x00, 0x00, 0xb8, 0x00, 0x00, 0x00, 0x10, 0x00, 0x00, 0x00,
        0x04, 0x00, 0x00, 0x00, 0x6d, 0x61, 0x69, 0x6e, 0x00, 0x00, 0x00, 0x00,
        0x6a, 0xff, 0xff, 0xff, 0x00, 0x00, 0x00, 0x09, 0x04, 0x00, 0x00, 0x00,
        0x1c, 0x00, 0x00, 0x00, 0x10, 0x00, 0x00, 0x00, 0x04, 0x00, 0x00, 0x00,
        0x4e, 0xb4, 0xff, 0xff, 0x00, 0x00, 0x80, 0x3f, 0x01, 0x00, 0x00, 0x00,
        0x11, 0x00, 0x00, 0x00, 0x01, 0x00, 0x00, 0x00, 0x10, 0x00, 0x00, 0x00,
        0xb4, 0xfa, 0xff, 0xff, 0x19, 0x00, 0x00, 0x00, 0x00, 0x00, 0x00, 0x19,
        0x01, 0x00, 0x00, 0x00, 0x10, 0xb4, 0xff, 0xff, 0x14, 0x00, 0x00, 0x00,
        0x12, 0x00, 0x00, 0x00, 0x18, 0x00, 0x00, 0x00, 0x40, 0x00, 0x00, 0x00,
        0x30, 0x00, 0x00, 0x00, 0x02, 0x00, 0x00, 0x00, 0x01, 0x00, 0x00, 0x00,
        0x04, 0x00, 0x00, 0x00, 0x19, 0x00, 0x00, 0x00, 0x53, 0x74, 0x61, 0x74,
        0x65, 0x66, 0x75, 0x6c, 0x50, 0x61, 0x72, 0x74, 0x69, 0x74, 0x69, 0x6f,
        0x6e, 0x65, 0x64, 0x43, 0x61, 0x6c, 0x6c, 0x3a, 0x30, 0x00, 0x00, 0x00,
        0x02, 0x00, 0x00, 0x00, 0xff, 0xff, 0xff, 0xff, 0x04, 0x00, 0x00, 0x00,
        0xd0, 0xb4, 0xff, 0xff, 0x00, 0x00, 0x0e, 0x00, 0x18, 0x00, 0x08, 0x00,
        0x0c, 0x00, 0x10, 0x00, 0x07, 0x00, 0x14, 0x00, 0x0e, 0x00, 0x00, 0x00,
        0x00, 0x00, 0x00, 0x08, 0x03, 0x00, 0x00, 0x00, 0x18, 0x00, 0x00, 0x00,
        0x0c, 0x00, 0x00, 0x00, 0x04, 0x00, 0x00, 0x00, 0x10, 0xb4, 0xff, 0xff,
        0x01, 0x00, 0x00, 0x00, 0x10, 0x00, 0x00, 0x00, 0x03, 0x00, 0x00, 0x00,
        0x0f, 0x00, 0x00, 0x00, 0x07, 0x00, 0x00, 0x00, 0x01, 0x00, 0x00, 0x00,
        0xa8, 0xb4, 0xff, 0xff, 0x14, 0x00, 0x00, 0x00, 0x11, 0x00, 0x00, 0x00,
        0x18, 0x00, 0x00, 0x00, 0x5c, 0x00, 0x00, 0x00, 0x4c, 0x00, 0x00, 0x00,
        0x02, 0x00, 0x00, 0x00, 0x01, 0x00, 0x00, 0x00, 0x04, 0x00, 0x00, 0x00,
        0x34, 0x00, 0x00, 0x00, 0x73, 0x65, 0x71, 0x75, 0x65, 0x6e, 0x74, 0x69,
        0x61, 0x6c, 0x2f, 0x64, 0x65, 0x6e, 0x73, 0x65, 0x5f, 0x31, 0x2f, 0x4d,
        0x61, 0x74, 0x4d, 0x75, 0x6c, 0x3b, 0x73, 0x65, 0x71, 0x75, 0x65, 0x6e,
        0x74, 0x69, 0x61, 0x6c, 0x2f, 0x64, 0x65, 0x6e, 0x73, 0x65, 0x5f, 0x31,
        0x2f, 0x42, 0x69, 0x61, 0x73, 0x41, 0x64, 0x64, 0x00, 0x00, 0x00, 0x00,
        0x02, 0x00, 0x00, 0x00, 0xff, 0xff, 0xff, 0xff, 0x04, 0x00, 0x00, 0x00,
        0x98, 0xb4, 0xff, 0xff, 0xfe, 0xfc, 0xff, 0xff, 0x00, 0x00, 0x00, 0x08,
        0x03, 0x00, 0x00, 0x00, 0x24, 0x00, 0x00, 0x00, 0x18, 0x00, 0x00, 0x00,
        0x0c, 0x00, 0x00, 0x00, 0x00, 0x00, 0x06, 0x00, 0x08, 0x00, 0x07, 0x00,
        0x06, 0x00, 0x00, 0x00, 0x00, 0x00, 0x00, 0x01, 0x01, 0x00, 0x00, 0x00,
        0x0f, 0x00, 0x00, 0x00, 0x03, 0x00, 0x00, 0x00, 0x0e, 0x00, 0x00, 0x00,
        0x06, 0x00, 0x00, 0x00, 0x02, 0x00, 0x00, 0x00, 0x0c, 0xfc, 0xff, 0xff,
        0x09, 0x00, 0x00, 0x00, 0x00, 0x00, 0x00, 0x09, 0x01, 0x00, 0x00, 0x00,
        0x68, 0xb5, 0xff, 0xff, 0x14, 0x00, 0x00, 0x00, 0x10, 0x00, 0x00, 0x00,
        0x18, 0x00, 0x00, 0x00, 0x6c, 0x00, 0x00, 0x00, 0x5c, 0x00, 0x00, 0x00,
        0x02, 0x00, 0x00, 0x00, 0x01, 0x00, 0x00, 0x00, 0x10, 0x00, 0x00, 0x00,
        0x46, 0x00, 0x00, 0x00, 0x73, 0x65, 0x71, 0x75, 0x65, 0x6e, 0x74, 0x69,
        0x61, 0x6c, 0x2f, 0x64, 0x65, 0x6e, 0x73, 0x65, 0x2f, 0x4d, 0x61, 0x74,
        0x4d, 0x75, 0x6c, 0x3b, 0x73, 0x65, 0x71, 0x75, 0x65, 0x6e, 0x74, 0x69,
        0x61, 0x6c, 0x2f, 0x64, 0x65, 0x6e, 0x73, 0x65, 0x2f, 0x52, 0x65, 0x6c,
        0x75, 0x3b, 0x73, 0x65, 0x71, 0x75, 0x65, 0x6e, 0x74, 0x69, 0x61, 0x6c,
        0x2f, 0x64, 0x65, 0x6e, 0x73, 0x65, 0x2f, 0x42, 0x69, 0x61, 0x73, 0x41,
        0x64, 0x64, 0x00, 0x00, 0x02, 0x00, 0x00, 0x00, 0xff, 0xff, 0xff, 0xff,
        0x10, 0x00, 0x00, 0x00, 0x54, 0xb6, 0xff, 0xff, 0x00, 0x00, 0x0a, 0x00,
        0x10, 0x00, 0x04, 0x00, 0x08, 0x00, 0x0c, 0x00, 0x0a, 0x00, 0x00, 0x00,
        0x02, 0x00, 0x00, 0x00, 0x10, 0x00, 0x00, 0x00, 0x04, 0x00, 0x00, 0x00,
        0x01, 0x00, 0x00, 0x00, 0x0e, 0x00, 0x00, 0x00, 0x02, 0x00, 0x00, 0x00,
        0x0d, 0x00, 0x00, 0x00, 0x05, 0x00, 0x00, 0x00, 0xcc, 0xfc, 0xff, 0xff,
        0x16, 0x00, 0x00, 0x00, 0x00, 0x00, 0x00, 0x16, 0x01, 0x00, 0x00, 0x00,
        0x28, 0xb6, 0xff, 0xff, 0x14, 0x00, 0x00, 0x00, 0x0f, 0x00, 0x00, 0x00,
        0x18, 0x00, 0x00, 0x00, 0x40, 0x00, 0x00, 0x00, 0x30, 0x00, 0x00, 0x00,
        0x02, 0x00, 0x00, 0x00, 0x01, 0x00, 0x00, 0x00, 0xe0, 0x00, 0x00, 0x00,
        0x1a, 0x00, 0x00, 0x00, 0x73, 0x65, 0x71, 0x75, 0x65, 0x6e, 0x74, 0x69,
        0x61, 0x6c, 0x2f, 0x66, 0x6c, 0x61, 0x74, 0x74, 0x65, 0x6e, 0x2f, 0x52,
        0x65, 0x73, 0x68, 0x61, 0x70, 0x65, 0x00, 0x00, 0x02, 0x00, 0x00, 0x00,
        0xff, 0xff, 0xff, 0xff, 0xe0, 0x00, 0x00, 0x00, 0xfc, 0xb5, 0xff, 0xff,
        0x62, 0xfe, 0xff, 0xff, 0x00, 0x00, 0x00, 0x05, 0x01, 0x00, 0x00, 0x00,
        0x38, 0x00, 0x00, 0x00, 0x2c, 0x00, 0x00, 0x00, 0x14, 0x00, 0x00, 0x00,
        0x00, 0x00, 0x0e, 0x00, 0x14, 0x00, 0x00, 0x00, 0x10, 0x00, 0x0c, 0x00,
        0x08, 0x00, 0x04, 0x00, 0x0e, 0x00, 0x00, 0x00, 0x03, 0x00, 0x00, 0x00,
        0x01, 0x00, 0x00, 0x00, 0x03, 0x00, 0x00, 0x00, 0x01, 0x00, 0x00, 0x00,
        0x01, 0x00, 0x00, 0x00, 0x0d, 0x00, 0x00, 0x00, 0x01, 0x00, 0x00, 0x00,
        0x0c, 0x00, 0x00, 0x00, 0xc8, 0xb6, 0xff, 0xff, 0x14, 0x00, 0x00, 0x00,
        0x0e, 0x00, 0x00, 0x00, 0x20, 0x00, 0x00, 0x00, 0x58, 0x00, 0x00, 0x00,
        0x40, 0x00, 0x00, 0x00, 0x04, 0x00, 0x00, 0x00, 0x01, 0x00, 0x00, 0x00,
        0x0e, 0x00, 0x00, 0x00, 0x01, 0x00, 0x00, 0x00, 0x10, 0x00, 0x00, 0x00,
        0x22, 0x00, 0x00, 0x00, 0x73, 0x65, 0x71, 0x75, 0x65, 0x6e, 0x74, 0x69,
        0x61, 0x6c, 0x2f, 0x6d, 0x61, 0x78, 0x5f, 0x70, 0x6f, 0x6f, 0x6c, 0x69,
        0x6e, 0x67, 0x32, 0x64, 0x5f, 0x31, 0x2f, 0x4d, 0x61, 0x78, 0x50, 0x6f,
        0x6f, 0x6c, 0x00, 0x00, 0x04, 0x00, 0x00, 0x00, 0xff, 0xff, 0xff, 0xff,
        0x0e, 0x00, 0x00, 0x00, 0x01, 0x00, 0x00, 0x00, 0x10, 0x00, 0x00, 0x00,
        0xb4, 0xb6, 0xff, 0xff, 0x3e, 0xfe, 0xff, 0xff, 0x00, 0x00, 0x00, 0x01,
        0x24, 0x00, 0x00, 0x00, 0x18, 0x00, 0x00, 0x00, 0x04, 0x00, 0x00, 0x00,
        0x30, 0xfe, 0xff, 0xff, 0x01, 0x00, 0x00, 0x00, 0x01, 0x00, 0x00, 0x00,
        0x00, 0x00, 0x00, 0x01, 0x01, 0x00, 0x00, 0x00, 0x0c, 0x00, 0x00, 0x00,
        0x03, 0x00, 0x00, 0x00, 0x0b, 0x00, 0x00, 0x00, 0x09, 0x00, 0x00, 0x00,
        0x03, 0x00, 0x00, 0x00, 0x70, 0xb7, 0xff, 0xff, 0x14, 0x00, 0x00, 0x00,
        0x0d, 0x00, 0x00, 0x00, 0x20, 0x00, 0x00, 0x00, 0x94, 0x00, 0x00, 0x00,
        0x7c, 0x00, 0x00, 0x00, 0x04, 0x00, 0x00, 0x00, 0x01, 0x00, 0x00, 0x00,
        0x2a, 0x00, 0x00, 0x00, 0x01, 0x00, 0x00, 0x00, 0x10, 0x00, 0x00, 0x00,
        0x5d, 0x00, 0x00, 0x00, 0x73, 0x65, 0x71, 0x75, 0x65, 0x6e, 0x74, 0x69,
        0x61, 0x6c, 0x2f, 0x63, 0x6f, 0x6e, 0x76, 0x32, 0x64, 0x5f, 0x31, 0x2f,
        0x52, 0x65, 0x6c, 0x75, 0x3b, 0x73, 0x65, 0x71, 0x75, 0x65, 0x6e, 0x74,
        0x69, 0x61, 0x6c, 0x2f, 0x63, 0x6f, 0x6e, 0x76, 0x32, 0x64, 0x5f, 0x31,
        0x2f, 0x42, 0x69, 0x61, 0x73, 0x41, 0x64, 0x64, 0x3b, 0x73, 0x65, 0x71,
        0x75, 0x65, 0x6e, 0x74, 0x69, 0x61, 0x6c, 0x2f, 0x63, 0x6f, 0x6e, 0x76,
        0x32, 0x64, 0x5f, 0x31, 0x2f, 0x43, 0x6f, 0x6e, 0x76, 0x32, 0x44, 0x3b,
        0x63, 0x6f, 0x6e, 0x76, 0x32, 0x64, 0x5f, 0x31, 0x2f, 0x62, 0x69, 0x61,
        0x73, 0x00, 0x00, 0x00, 0x04, 0x00, 0x00, 0x00, 0xff, 0xff, 0xff, 0xff,
        0x2a, 0x00, 0x00, 0x00, 0x01, 0x00, 0x00, 0x00, 0x10, 0x00, 0x00, 0x00,
        0x84, 0xb8, 0xff, 0xff, 0x00, 0x00, 0x0e, 0x00, 0x1a, 0x00, 0x08, 0x00,
        0x0c, 0x00, 0x10, 0x00, 0x07, 0x00, 0x14, 0x00, 0x0e, 0x00, 0x00, 0x00,
        0x00, 0x00, 0x00, 0x05, 0x01, 0x00, 0x00, 0x00, 0x3c, 0x00, 0x00, 0x00,
        0x30, 0x00, 0x00, 0x00, 0x14, 0x00, 0x00, 0x00, 0x00, 0x00, 0x0e, 0x00,
        0x18, 0x00, 0x17, 0x00, 0x10, 0x00, 0x0c, 0x00, 0x08, 0x00, 0x04, 0x00,
        0x0e, 0x00, 0x00, 0x00, 0x03, 0x00, 0x00, 0x00, 0x03, 0x00, 0x00, 0x00,
        0x03, 0x00, 0x00, 0x00, 0x03, 0x00, 0x00, 0x00, 0x00, 0x00, 0x00, 0x01,
        0x01, 0x00, 0x00, 0x00, 0x0b, 0x00, 0x00, 0x00, 0x01, 0x00, 0x00, 0x00,
        0x0a, 0x00, 0x00, 0x00, 0x2c, 0xff, 0xff, 0xff, 0x11, 0x00, 0x00, 0x00,
        0x00, 0x00, 0x00, 0x11, 0x01, 0x00, 0x00, 0x00, 0x88, 0xb8, 0xff, 0xff,
        0x14, 0x00, 0x00, 0x00, 0x0c, 0x00, 0x00, 0x00, 0x20, 0x00, 0x00, 0x00,
        0x58, 0x00, 0x00, 0x00, 0x40, 0x00, 0x00, 0x00, 0x04, 0x00, 0x00, 0x00,
        0x01, 0x00, 0x00, 0x00, 0x2a, 0x00, 0x00, 0x00, 0x01, 0x00, 0x00, 0x00,
        0x08, 0x00, 0x00, 0x00, 0x20, 0x00, 0x00, 0x00, 0x73, 0x65, 0x71, 0x75,
        0x65, 0x6e, 0x74, 0x69, 0x61, 0x6c, 0x2f, 0x6d, 0x61, 0x78, 0x5f, 0x70,
        0x6f, 0x6f, 0x6c, 0x69, 0x6e, 0x67, 0x32, 0x64, 0x2f, 0x4d, 0x61, 0x78,
        0x50, 0x6f, 0x6f, 0x6c, 0x00, 0x00, 0x00, 0x00, 0x04, 0x00, 0x00, 0x00,
        0xff, 0xff, 0xff, 0xff, 0x2a, 0x00, 0x00, 0x00, 0x01, 0x00, 0x00, 0x00,
        0x08, 0x00, 0x00, 0x00, 0x60, 0xb9, 0xff, 0xff, 0x00, 0x00, 0x0e, 0x00,
        0x14, 0x00, 0x00, 0x00, 0x08, 0x00, 0x0c, 0x00, 0x07, 0x00, 0x10, 0x00,
        0x0e, 0x00, 0x00, 0x00, 0x00, 0x00, 0x00, 0x01, 0x30, 0x00, 0x00, 0x00,
        0x24, 0x00, 0x00, 0x00, 0x10, 0x00, 0x00, 0x00, 0x0c, 0x00, 0x10, 0x00,
        0x00, 0x00, 0x04, 0x00, 0x08, 0x00, 0x0f, 0x00, 0x0c, 0x00, 0x00, 0x00,
        0x01, 0x00, 0x00, 0x00, 0x01, 0x00, 0x00, 0x00, 0x00, 0x00, 0x00, 0x01,
        0x01, 0x00, 0x00, 0x00, 0x0a, 0x00, 0x00, 0x00, 0x03, 0x00, 0x00, 0x00,
        0x00, 0x00, 0x00, 0x00, 0x08, 0x00, 0x00, 0x00, 0x04, 0x00, 0x00, 0x00,
        0x0c, 0x00, 0x10, 0x00, 0x0b, 0x00, 0x00, 0x00, 0x0c, 0x00, 0x04, 0x00,
        0x0c, 0x00, 0x00, 0x00, 0x03, 0x00, 0x00, 0x00, 0x00, 0x00, 0x00, 0x03,
        0x01, 0x00, 0x00, 0x00, 0x68, 0xb9, 0xff, 0xff, 0x14, 0x00, 0x00, 0x00,
        0x0b, 0x00, 0x00, 0x00, 0x20, 0x00, 0x00, 0x00, 0x8c, 0x00, 0x00, 0x00,
        0x74, 0x00, 0x00, 0x00, 0x04, 0x00, 0x00, 0x00, 0x01, 0x00, 0x00, 0x00,
        0x80, 0x00, 0x00, 0x00, 0x03, 0x00, 0x00, 0x00, 0x08, 0x00, 0x00, 0x00,
        0x55, 0x00, 0x00, 0x00, 0x73, 0x65, 0x71, 0x75, 0x65, 0x6e, 0x74, 0x69,
        0x61, 0x6c, 0x2f, 0x63, 0x6f, 0x6e, 0x76, 0x32, 0x64, 0x2f, 0x52, 0x65,
        0x6c, 0x75, 0x3b, 0x73, 0x65, 0x71, 0x75, 0x65, 0x6e, 0x74, 0x69, 0x61,
        0x6c, 0x2f, 0x63, 0x6f, 0x6e, 0x76, 0x32, 0x64, 0x2f, 0x42, 0x69, 0x61,
        0x73, 0x41, 0x64, 0x64, 0x3b, 0x73, 0x65, 0x71, 0x75, 0x65, 0x6e, 0x74,
        0x69, 0x61, 0x6c, 0x2f, 0x63, 0x6f, 0x6e, 0x76, 0x32, 0x64, 0x2f, 0x43,
        0x6f, 0x6e, 0x76, 0x32, 0x44, 0x3b, 0x63, 0x6f, 0x6e, 0x76, 0x32, 0x64,
        0x2f, 0x62, 0x69, 0x61, 0x73, 0x00, 0x00, 0x00, 0x04, 0x00, 0x00, 0x00,
        0xff, 0xff, 0xff, 0xff, 0x80, 0x00, 0x00, 0x00, 0x03, 0x00, 0x00, 0x00,
        0x08, 0x00, 0x00, 0x00, 0x88, 0xb9, 0xff, 0xff, 0x6e, 0xba, 0xff, 0xff,
        0x04, 0x00, 0x00, 0x00, 0x00, 0x08, 0x00, 0x00, 0x94, 0x50, 0xad, 0xbf,
        0x31, 0x36, 0x70, 0x3e, 0x4c, 0x8c, 0x8c, 0xbd, 0xdc, 0x2c, 0x8d, 0xbd,
        0xad, 0x20, 0x37, 0x3d, 0x9d, 0xc2, 0x81, 0x3e, 0x8d, 0xc1, 0x38, 0x3e,
        0x4e, 0x12, 0x87, 0x3d, 0x19, 0xac, 0xab, 0xbf, 0xe3, 0x84, 0xfa, 0x3d,
        0x79, 0xd3, 0x5d, 0xbd, 0xd7, 0x20, 0xb5, 0xbd, 0x5e, 0xa2, 0x85, 0x3e,
        0xba, 0xb3, 0x68, 0x3d, 0xe4, 0xaa, 0x3b, 0xbe, 0xfc, 0xc5, 0x22, 0x3e,
        0x52, 0xbe, 0xa3, 0xbf, 0x30, 0x69, 0x7b, 0x3e, 0xdb, 0x06, 0xd3, 0x3c,
        0xb0, 0x75, 0x91, 0xbd, 0x1c, 0xe6, 0x0b, 0xba, 0xb5, 0x0f, 0x4b, 0xbd,
        0xd6, 0x9a, 0x9e, 0xbe, 0x82, 0x69, 0xa5, 0xbd, 0xbc, 0x4e, 0x9c, 0xbf,
        0xfb, 0x3f, 0x32, 0xbe, 0x06, 0x9c, 0xaf, 0x3c, 0x69, 0x06, 0xd3, 0xbd,
        0x05, 0x06, 0x07, 0xbe, 0x2d, 0x95, 0xcf, 0x3e, 0xbd, 0xff, 0x1d, 0xbf,
        0xe7, 0xdd, 0xad, 0x3c, 0x05, 0x60, 0x8a, 0x3e, 0x80, 0x10, 0x9e, 0xbd,
        0x90, 0xfc, 0x76, 0x3d, 0xbd, 0x9e, 0x4f, 0x3e, 0x33, 0x34, 0xaf, 0xbc,
        0xcd, 0x10, 0x90, 0xbe, 0x59, 0xc2, 0xb2, 0x3d, 0xd3, 0xea, 0x1d, 0x3e,
        0x6d, 0x68, 0x77, 0x3e, 0xb6, 0xd3, 0x5b, 0xbd, 0x14, 0xc7, 0x53, 0x3e,
        0x88, 0xc2, 0xb2, 0x3e, 0x29, 0x21, 0xcd, 0x3d, 0x8f, 0xa0, 0xa2, 0xbe,
        0x92, 0xe1, 0x88, 0x3d, 0x50, 0x97, 0x12, 0x3e, 0xae, 0xf3, 0x0c, 0x3d,
        0xe1, 0x3c, 0xc0, 0xbd, 0xa9, 0xcf, 0xdf, 0x3d, 0xff, 0x67, 0xdb, 0x3c,
        0x15, 0x7d, 0x86, 0xbd, 0xb9, 0xf8, 0xc8, 0xbe, 0x22, 0x1a, 0x86, 0x3d,
        0x96, 0x20, 0xeb, 0x3d, 0xdc, 0x35, 0xf8, 0x3d, 0xd9, 0xe2, 0x2a, 0xbe,
        0x12, 0x3c, 0x52, 0x3e, 0x8d, 0x17, 0x94, 0x3c, 0xf7, 0x98, 0x39, 0xbd,
        0xf7, 0x7b, 0xcb, 0xbe, 0xa0, 0xf6, 0x2e, 0xbe, 0x75, 0x86, 0x34, 0xbe,
        0xf0, 0x51, 0xfb, 0x3d, 0xa8, 0xc5, 0x5a, 0x3e, 0x2d, 0x7c, 0xc2, 0xbe,
        0x24, 0x60, 0x2e, 0xbe, 0x50, 0x31, 0x88, 0x3e, 0x1d, 0xb7, 0xb3, 0xbc,
        0x5f, 0xcf, 0xeb, 0x3b, 0x9a, 0xbb, 0x0c, 0xbe, 0x88, 0x64, 0xac, 0x3e,
        0x90, 0xc0, 0xa8, 0x3d, 0xbe, 0x01, 0xf6, 0xbe, 0x92, 0x3e, 0xed, 0xbe,
        0x45, 0x71, 0x97, 0x3c, 0xdb, 0x84, 0x31, 0xbe, 0xc9, 0x4c, 0xc3, 0x3e,
        0xc9, 0x1c, 0x9d, 0x3e, 0x47, 0x64, 0x3e, 0x3e, 0x20, 0x80, 0xa4, 0xbe,
        0xd0, 0xea, 0x5c, 0xbe, 0x9a, 0x19, 0xfb, 0xbe, 0x35, 0x79, 0x0e, 0x3e,
        0x9e, 0xce, 0xba, 0xbd, 0xb2, 0xc6, 0x4e, 0xbe, 0x9b, 0x54, 0xec, 0x3d,
        0xfa, 0xec, 0xae, 0x3e, 0x48, 0x0c, 0x00, 0xbf, 0x03, 0xe8, 0x8f, 0x3d,
        0x8d, 0x97, 0x9c, 0xbe, 0x63, 0x2c, 0x5a, 0x3d, 0xd1, 0xdc, 0x18, 0x3e,
        0xcc, 0x0d, 0x86, 0xbe, 0x46, 0xae, 0xac, 0x3c, 0x06, 0xf5, 0xbc, 0xbe,
        0xb1, 0x9f, 0x39, 0x3e, 0x37, 0x26, 0x9b, 0x3c, 0x4c, 0x91, 0x1b, 0xbe,
        0x11, 0x02, 0x8e, 0xbd, 0xeb, 0x42, 0x28, 0xbf, 0x36, 0x13, 0xee, 0x3d,
        0x4c, 0x33, 0x12, 0xbe, 0xe8, 0x48, 0x86, 0xbe, 0xbb, 0xc0, 0x97, 0x3e,
        0x7b, 0xa5, 0x65, 0xbe, 0xd4, 0x04, 0xad, 0xbd, 0xf3, 0x36, 0xa3, 0xbd,
        0x4d, 0x1c, 0xf4, 0xbe, 0x1c, 0xc1, 0x10, 0xbd, 0x8b, 0xdc, 0xa9, 0xbd,
        0x1b, 0x7c, 0xfa, 0xbe, 0xd8, 0xd5, 0xa3, 0x3e, 0xaa, 0xca, 0x7f, 0xbe,
        0x97, 0xca, 0x03, 0xbd, 0xce, 0x0f, 0xa8, 0xbd, 0x9e, 0x1b, 0x2b, 0xbf,
        0x5c, 0xfb, 0xc1, 0xbd, 0xdd, 0x0d, 0x23, 0xbe, 0x15, 0x7a, 0xe6, 0xbe,
        0xdc, 0x23, 0x0e, 0xbe, 0xd5, 0x1c, 0x2d, 0xbe, 0x8c, 0x37, 0x9a, 0x3d,
        0x4a, 0x6b, 0xcf, 0xbd, 0x58, 0xff, 0x02, 0xbf, 0xc3, 0xbc, 0x54, 0x3e,
        0xbe, 0xb9, 0x18, 0xbe, 0xe2, 0xbe, 0x33, 0x3e, 0xce, 0x6a, 0x3e, 0x3e,
        0xc1, 0xda, 0x8e, 0x39, 0x4d, 0xa2, 0x4d, 0xbe, 0xcd, 0xbb, 0x41, 0x3c,
        0xd7, 0xc3, 0x17, 0x3f, 0x48, 0xc6, 0x16, 0xbf, 0xda, 0x59, 0x5a, 0xbd,
        0x5a, 0x1e, 0x7f, 0x3d, 0xa6, 0xee, 0x2e, 0x3d, 0xaf, 0x00, 0x36, 0xbd,
        0xc5, 0x71, 0x3e, 0xbe, 0x5b, 0x2e, 0xc7, 0x3e, 0xff, 0xb4, 0x6e, 0x3e,
        0xcb, 0x9f, 0x20, 0xbf, 0x7c, 0x7d, 0x0e, 0xbd, 0x32, 0xef, 0x1a, 0x3e,
        0xa9, 0x2e, 0x78, 0xbe, 0xbc, 0x51, 0x07, 0xbe, 0x27, 0x50, 0x85, 0xbe,
        0xf4, 0x67, 0xd5, 0x3d, 0x9e, 0x86, 0xe0, 0xbd, 0x9c, 0x60, 0x33, 0xbf,
        0x30, 0xa2, 0xbd, 0xbd, 0x68, 0x21, 0x89, 0x3d, 0x69, 0x77, 0x00, 0xbc,
        0xa0, 0xa7, 0x5e, 0x3e, 0x90, 0x6a, 0xb1, 0xbd, 0x5f, 0x39, 0x28, 0xbd,
        0xb0, 0x57, 0x4d, 0xbd, 0xe7, 0x17, 0x01, 0xbf, 0xa7, 0x6e, 0x1c, 0xbe,
        0x35, 0x95, 0x05, 0xbe, 0xfc, 0x73, 0xbe, 0xbe, 0x55, 0x10, 0x17, 0x3e,
        0x99, 0xd6, 0xad, 0xbe, 0xb2, 0x37, 0xc4, 0xbd, 0x73, 0xa1, 0x24, 0xbe,
        0x34, 0x44, 0xcc, 0xbe, 0x33, 0x3b, 0xfa, 0xbd, 0x16, 0x7b, 0xcc, 0x3d,
        0xa7, 0x9c, 0x73, 0xbe, 0xec, 0x36, 0x84, 0x3e, 0x3a, 0xf5, 0x23, 0xbe,
        0xe9, 0xb6, 0x3a, 0x3e, 0xd0, 0x66, 0xb0, 0xbe, 0xf2, 0xcd, 0x01, 0xbe,
        0x6d, 0x1c, 0x18, 0x3e, 0x5d, 0x35, 0x37, 0xbe, 0xf4, 0x5d, 0xa1, 0xbe,
        0x23, 0xa1, 0x0a, 0x3d, 0x4b, 0x8f, 0xd3, 0xbc, 0x0e, 0xff, 0x40, 0xbe,
        0x06, 0x32, 0x96, 0xbe, 0x33, 0x6c, 0x72, 0x3d, 0x61, 0xac, 0xd8, 0xbc,
        0x5b, 0xc9, 0xb3, 0x3e, 0x79, 0x89, 0x04, 0xbe, 0x8f, 0x77, 0xdb, 0xbc,
        0xc3, 0xbf, 0xf2, 0x3d, 0x5d, 0x71, 0x9c, 0x3d, 0xc7, 0xba, 0x28, 0x3d,
        0x6b, 0x5d, 0xd7, 0x3d, 0xe3, 0x6e, 0xb4, 0x3c, 0xff, 0x8f, 0x88, 0xbe,
        0x5f, 0x0d, 0x60, 0xbe, 0x5f, 0x5f, 0x58, 0x3d, 0x4d, 0x3d, 0x5d, 0x3e,
        0xb8, 0xd5, 0x23, 0xbd, 0xa0, 0xfa, 0x85, 0xbd, 0x62, 0xf8, 0xe2, 0x3d,
        0x5e, 0x41, 0xd3, 0x3e, 0x4b, 0xff, 0x10, 0xbd, 0xaa, 0xc3, 0x93, 0xbe,
        0xb8, 0xd2, 0xcc, 0xbd, 0xce, 0xf9, 0xa7, 0xbd, 0x80, 0x1f, 0x78, 0xbd,
        0x44, 0x32, 0xca, 0xbd, 0x93, 0x33, 0x3b, 0x3e, 0xff, 0xa9, 0xe9, 0x3d,
        0xc8, 0xbe, 0xa0, 0xbe, 0xb0, 0x3e, 0x9f, 0xbe, 0x4c, 0xef, 0x57, 0xbd,
        0xf5, 0x59, 0x3d, 0xbd, 0xb4, 0x39, 0xe1, 0xbd, 0xcf, 0x7a, 0xcd, 0x3d,
        0x17, 0xca, 0xae, 0xbb, 0x63, 0x5b, 0xe9, 0x3d, 0x9d, 0x43, 0x62, 0xbe,
        0x51, 0x71, 0xa7, 0xbe, 0xfe, 0x02, 0xbd, 0x3d, 0x17, 0xa3, 0x64, 0xbd,
        0xc0, 0x66, 0x1c, 0xbe, 0xef, 0x70, 0x06, 0x3e, 0x90, 0xf1, 0xe3, 0xbd,
        0x24, 0x43, 0x34, 0x3e, 0x17, 0x68, 0xc4, 0x3d, 0xb1, 0xf1, 0xd1, 0x3e,
        0x26, 0x56, 0x74, 0xbd, 0x6e, 0x32, 0x3f, 0xbe, 0xb2, 0xa0, 0xac, 0xbe,
        0x98, 0x7a, 0x6b, 0xbe, 0xea, 0xde, 0x22, 0xbe, 0x3f, 0x98, 0xae, 0x3c,
        0xbe, 0x59, 0x99, 0x3d, 0x3e, 0xbf, 0xbe, 0x3e, 0x72, 0x35, 0x62, 0x3e,
        0xe0, 0x20, 0xa7, 0xbd, 0xd8, 0xf2, 0xb5, 0xbe, 0x38, 0x79, 0xa6, 0xbd,
        0x9c, 0xc3, 0xf0, 0xbe, 0xbb, 0x66, 0xc3, 0xbb, 0xa9, 0x59, 0x32, 0x3e,
        0xd1, 0xd0, 0x15, 0x3f, 0x9b, 0xff, 0x3d, 0xbe, 0xc5, 0x30, 0x3b, 0x3b,
        0xca, 0xc4, 0xd1, 0xbe, 0x60, 0x48, 0x88, 0xbd, 0x59, 0x0c, 0xa0, 0xbe,
        0xaa, 0x73, 0xb6, 0xbd, 0x76, 0x22, 0xd7, 0x3d, 0x41, 0xdb, 0x06, 0x3f,
        0x72, 0xb4, 0x4f, 0x3e, 0x30, 0x57, 0x8f, 0xbd, 0xdb, 0xfc, 0xbb, 0xbe,
        0x11, 0x73, 0x4d, 0xbe, 0x80, 0x16, 0xa6, 0xbe, 0xcd, 0x49, 0xca, 0x3b,
        0x7c, 0x9b, 0x0a, 0x3e, 0xd3, 0x58, 0x52, 0x3d, 0xf7, 0x05, 0x43, 0xbf,
        0x22, 0x64, 0xc0, 0xbd, 0x9e, 0x60, 0x8f, 0x3a, 0xde, 0xe4, 0xaa, 0xbe,
        0x49, 0xb9, 0x9f, 0x3e, 0x5b, 0x8a, 0xa6, 0xbc, 0x09, 0x78, 0xa7, 0x3e,
        0x53, 0xfc, 0x50, 0xbd, 0xb3, 0x3c, 0x3c, 0xbf, 0xa1, 0x68, 0x4e, 0xbe,
        0x81, 0x39, 0x0b, 0xbe, 0xd5, 0x3f, 0xcd, 0xbe, 0xef, 0x47, 0x68, 0x3e,
        0x78, 0x07, 0x29, 0xbe, 0x58, 0x9e, 0x35, 0x3e, 0x4f, 0xa4, 0xe8, 0xbd,
        0x9d, 0x8a, 0x87, 0xbe, 0x72, 0xc8, 0x26, 0xbe, 0x49, 0x62, 0x1d, 0xbe,
        0xf0, 0x46, 0x4c, 0xbd, 0x37, 0x00, 0x08, 0x3e, 0x9f, 0x98, 0x83, 0x3e,
        0xb6, 0x7d, 0x2e, 0x3e, 0xa2, 0xe6, 0xfe, 0xbe, 0x29, 0x6e, 0x91, 0xbb,
        0x9e, 0x5a, 0xed, 0xbd, 0xd6, 0x27, 0xbc, 0xbd, 0x62, 0xc0, 0x10, 0x3e,
        0x31, 0xc8, 0x8e, 0xbe, 0x61, 0x34, 0xbd, 0x3e, 0x5c, 0x07, 0x11, 0x3e,
        0xf6, 0x84, 0xd3, 0xbd, 0x09, 0xa3, 0x51, 0xbc, 0xa4, 0x26, 0x56, 0x3d,
        0x6a, 0x33, 0x9c, 0xbd, 0x68, 0xde, 0x87, 0xbe, 0x92, 0xd2, 0xce, 0x3a,
        0xc0, 0xe8, 0xf6, 0xbe, 0xfd, 0x01, 0x17, 0xbe, 0xa3, 0xaf, 0xda, 0x3c,
        0x9d, 0x5b, 0xb4, 0xbc, 0xcf, 0x46, 0x42, 0x3e, 0xe3, 0x81, 0x0b, 0xbe,
        0x37, 0xb6, 0x9b, 0xbe, 0xd5, 0x8d, 0xea, 0x3d, 0x18, 0xcd, 0xd7, 0xbe,
        0x82, 0x3f, 0x9b, 0xbc, 0x2d, 0x05, 0x7e, 0x3c, 0xcf, 0x83, 0x1f, 0xbd,
        0x38, 0x50, 0xea, 0x3b, 0x3a, 0x9e, 0xf9, 0xbc, 0x56, 0x2b, 0x27, 0xbe,
        0x5f, 0x77, 0xb4, 0xbd, 0xe4, 0x79, 0xc0, 0xbe, 0xec, 0x68, 0x14, 0x3e,
        0x27, 0x93, 0x7a, 0x39, 0x47, 0xb7, 0xa3, 0x3d, 0x2c, 0x54, 0x3c, 0x3e,
        0x32, 0x07, 0xfe, 0x3e, 0xa7, 0x64, 0x54, 0xbe, 0xfb, 0x0e, 0x1d, 0x3d,
        0xf0, 0xf8, 0x73, 0xbe, 0x55, 0xfb, 0x0d, 0x3d, 0x58, 0x93, 0x03, 0xbf,
        0xa2, 0x82, 0x34, 0x3e, 0x7f, 0xde, 0x0b, 0x3d, 0x3a, 0x9c, 0x90, 0x3c,
        0x56, 0xe2, 0x89, 0x3e, 0x58, 0x0d, 0x46, 0xbe, 0xc2, 0x21, 0x90, 0xbe,
        0x4b, 0x1b, 0x37, 0x3d, 0xd5, 0xab, 0x28, 0xbd, 0xe5, 0xc3, 0x16, 0x3e,
        0x12, 0x2e, 0x8f, 0x3d, 0x6d, 0xa8, 0x21, 0x3d, 0x63, 0x82, 0x92, 0x3e,
        0x45, 0x05, 0x0a, 0xbd, 0xa2, 0x6a, 0xc2, 0xbe, 0xd6, 0x4a, 0x6f, 0x3e,
        0x6c, 0xab, 0xe6, 0xbc, 0xa6, 0x96, 0x51, 0x3b, 0x36, 0x3f, 0x95, 0xbd,
        0x04, 0x80, 0xeb, 0xbd, 0xfe, 0x8b, 0x66, 0xbd, 0xaa, 0xe5, 0x8a, 0xbd,
        0x8a, 0x1a, 0xfa, 0xbe, 0xd1, 0xc1, 0x96, 0x3d, 0xbe, 0xa0, 0xd9, 0x3e,
        0xa1, 0x70, 0x12, 0x3c, 0x82, 0x56, 0xa8, 0xbd, 0xf1, 0x7e, 0x10, 0xbe,
        0x30, 0x0f, 0x59, 0xbe, 0xea, 0xc9, 0xce, 0xbd, 0x25, 0x41, 0xe8, 0xbe,
        0x82, 0xf9, 0x1d, 0xbf, 0x4e, 0xd6, 0x2c, 0xbe, 0xab, 0xa1, 0x5b, 0xbe,
        0xe0, 0x5c, 0x2c, 0xbe, 0xf8, 0x6f, 0xa2, 0x3d, 0x89, 0x91, 0x7b, 0x3e,
        0x2d, 0xe1, 0x5a, 0xbd, 0xda, 0x49, 0xf8, 0xbc, 0xc3, 0x43, 0x10, 0xbf,
        0x17, 0xf3, 0x0c, 0xbe, 0x6f, 0x14, 0x1e, 0xbe, 0x88, 0x83, 0xfb, 0xbc,
        0x13, 0x9a, 0xee, 0x3e, 0xb9, 0xc3, 0xc5, 0x3d, 0x20, 0x68, 0x90, 0xbd,
        0x94, 0x33, 0x0a, 0xbe, 0xed, 0xf4, 0x67, 0xbf, 0xa4, 0x22, 0x01, 0xbd,
        0xdd, 0xc0, 0x3f, 0xbe, 0xe7, 0x6a, 0xc6, 0xbd, 0xd5, 0xce, 0x35, 0x3e,
        0x79, 0x1e, 0x9c, 0x3e, 0x52, 0x8b, 0x4c, 0x3e, 0xd4, 0xd1, 0x35, 0xbe,
        0x90, 0x57, 0x4a, 0xbf, 0x45, 0xb2, 0x5d, 0x3e, 0x28, 0xd1, 0x9a, 0xbe,
        0xd6, 0x6f, 0x26, 0xbe, 0x34, 0x2f, 0x47, 0x3d, 0x6c, 0x1c, 0xc3, 0x3c,
        0x93, 0x14, 0x96, 0x3e, 0xcf, 0x3b, 0x77, 0xbe, 0x77, 0x2f, 0x39, 0xbf,
        0xb2, 0xb6, 0xc9, 0x3d, 0x9f, 0x1d, 0x34, 0x3e, 0x71, 0x49, 0xa5, 0x3d,
        0x71, 0xd3, 0x28, 0x3e, 0x20, 0x8d, 0xa5, 0xbd, 0xb8, 0x38, 0xb5, 0xbd,
        0x69, 0xa6, 0x89, 0xbe, 0xfc, 0x1c, 0x4a, 0xbf, 0x4d, 0x36, 0xc9, 0xbd,
        0xe1, 0x61, 0x4b, 0x3d, 0x1b, 0x55, 0xfb, 0x3d, 0x53, 0xcb, 0x8b, 0x3d,
        0xda, 0x8c, 0xb7, 0xbc, 0x47, 0xef, 0x10, 0x3e, 0x2b, 0xf0, 0x8c, 0xbe,
        0xe6, 0xfe, 0x30, 0xbf, 0x7a, 0x62, 0xb7, 0xbe, 0xa4, 0xff, 0x89, 0x3e,
        0xcb, 0x96, 0x46, 0x3c, 0x08, 0xb6, 0xe9, 0xbd, 0x7c, 0x91, 0xe9, 0xbd,
        0x27, 0x46, 0x9e, 0xbe, 0xef, 0x50, 0xa1, 0xbe, 0x0b, 0x74, 0x5f, 0xbf,
        0xe5, 0xdf, 0x19, 0xbf, 0xc4, 0x96, 0xcb, 0x3c, 0xf6, 0x5b, 0x03, 0xbe,
        0x95, 0xb7, 0x79, 0x3e, 0xbf, 0xdd, 0x18, 0xbe, 0x1e, 0x21, 0x3c, 0xbe,
        0xe7, 0x81, 0x21, 0xbf, 0x8e, 0x5b, 0x9e, 0x3e, 0x80, 0xb1, 0x3f, 0x3e,
        0x55, 0xf8, 0x68, 0xbe, 0x74, 0xfc, 0x85, 0xbc, 0xb1, 0x14, 0x72, 0xbd,
        0x08, 0xe4, 0xde, 0xbd, 0x3b, 0x63, 0xd0, 0x3e, 0x70, 0x74, 0xa4, 0x3e,
        0x64, 0x98, 0xaf, 0x3d, 0x33, 0x58, 0x3e, 0x3d, 0xc9, 0xc5, 0x06, 0xbe,
        0xd0, 0x7f, 0x07, 0xbe, 0x15, 0x90, 0x1b, 0xbe, 0xa7, 0x13, 0x3c, 0x3e,
        0x29, 0x81, 0xe6, 0xbd, 0x14, 0x3d, 0x18, 0x3e, 0xcf, 0xf1, 0xd7, 0xbc,
        0xb8, 0x2f, 0x2e, 0xbe, 0x4d, 0x1c, 0xd7, 0xbe, 0xc8, 0x43, 0x79, 0xbe,
        0x9f, 0xbf, 0x88, 0xbe, 0x18, 0x6d, 0x8d, 0x3d, 0x10, 0x0b, 0x57, 0x3b,
        0x16, 0xf7, 0xd4, 0xbd, 0x63, 0xec, 0x9e, 0x3d, 0xdc, 0x72, 0x06, 0xbd,
        0x9d, 0xb9, 0x18, 0xbf, 0xdd, 0x30, 0x04, 0xbf, 0x4f, 0xaf, 0xa3, 0xbe,
        0x11, 0xcc, 0x49, 0xbe, 0x67, 0xa1, 0x64, 0xbd, 0xa5, 0x2e, 0x76, 0xbe,
        0xa4, 0xe5, 0x27, 0x3f, 0xe6, 0xb8, 0x33, 0xbe, 0xd1, 0xdf, 0x43, 0x3d,
        0xaa, 0xa0, 0xe9, 0x3c, 0x1e, 0x88, 0x61, 0x3d, 0x75, 0x3d, 0x45, 0x3d,
        0xb3, 0xef, 0x57, 0xbe, 0xa8, 0x45, 0x52, 0x3d, 0x90, 0x5f, 0x0a, 0x3e,
        0x4e, 0xc5, 0x24, 0xbf, 0x17, 0x9f, 0xff, 0x3c, 0xae, 0xe8, 0x89, 0xbc,
        0x7c, 0x73, 0x1b, 0xbe, 0xda, 0x61, 0xc3, 0xbc, 0xb2, 0x40, 0x77, 0xbf,
        0xd1, 0xe5, 0x20, 0x3e, 0x4a, 0x91, 0x28, 0xbd, 0xa6, 0x87, 0x2b, 0xbf,
        0x73, 0xb5, 0xb2, 0x3d, 0xcf, 0xb4, 0xc0, 0x3d, 0xd7, 0x3a, 0x3c, 0xbd,
        0xe2, 0xf2, 0x25, 0xbd, 0x66, 0x71, 0x7a, 0xbf, 0x73, 0x84, 0xf8, 0x3b,
        0x9e, 0x32, 0xcb, 0x3e, 0x57, 0x07, 0xc9, 0xbe, 0xe0, 0x70, 0x7c, 0xbd,
        0x6a, 0x59, 0x51, 0xbd, 0x1e, 0xe5, 0xdc, 0xbd, 0x46, 0x1d, 0xe8, 0xbd,
        0x7e, 0x64, 0x48, 0xbf, 0x25, 0x72, 0xda, 0xbd, 0x70, 0x27, 0x72, 0xbf,
        0xb6, 0x95, 0x9d, 0x3c, 0x4e, 0x11, 0xbe, 0x3d, 0x94, 0x3b, 0x91, 0xbd,
        0xcf, 0xc9, 0x4f, 0x3e, 0x12, 0x81, 0x99, 0xbd, 0xa2, 0x76, 0x5d, 0xba,
        0x31, 0xaa, 0x9d, 0x3c, 0x77, 0x8c, 0x89, 0xbf, 0x11, 0xa5, 0xe9, 0x3d,
        0x07, 0x72, 0x83, 0xbc, 0x15, 0x58, 0x75, 0xbd, 0xe6, 0x90, 0x53, 0xbd,
        0xe8, 0x92, 0xa2, 0x3c, 0xd9, 0x10, 0x61, 0x3e, 0x65, 0xad, 0xe1, 0xbc,
        0x35, 0x01, 0x91, 0xbf, 0x71, 0x8b, 0xce, 0x3c, 0x7f, 0x78, 0xa1, 0x3d,
        0x10, 0x56, 0xbb, 0xbc, 0xc0, 0x4c, 0x7f, 0x3c, 0xbf, 0xfb, 0x25, 0x3e,
        0xd6, 0xef, 0x10, 0x3c, 0xaf, 0xb7, 0x1c, 0x3e, 0x91, 0xc7, 0x8a, 0xbf,
        0x80, 0x11, 0x30, 0xbe, 0xfb, 0x6b, 0xe2, 0x3d, 0xf5, 0x8a, 0x1e, 0xb9,
        0x9a, 0x03, 0x8a, 0xbd, 0x5f, 0x75, 0x84, 0xbd, 0xba, 0x68, 0x89, 0x3e,
        0xd5, 0xc2, 0x67, 0x3b, 0x56, 0xc2, 0xff, 0xff, 0x10, 0x00, 0x00, 0x00,
        0x0a, 0x00, 0x00, 0x00, 0x1c, 0x00, 0x00, 0x00, 0x38, 0x00, 0x00, 0x00,
        0x04, 0x00, 0x00, 0x00, 0x10, 0x00, 0x00, 0x00, 0x04, 0x00, 0x00, 0x00,
        0x01, 0x00, 0x00, 0x00, 0x08, 0x00, 0x00, 0x00, 0x1a, 0x00, 0x00, 0x00,
        0x73, 0x65, 0x71, 0x75, 0x65, 0x6e, 0x74, 0x69, 0x61, 0x6c, 0x2f, 0x63,
        0x6f, 0x6e, 0x76, 0x32, 0x64, 0x5f, 0x31, 0x2f, 0x43, 0x6f, 0x6e, 0x76,
        0x32, 0x44, 0x00, 0x00, 0xe0, 0xc1, 0xff, 0xff, 0xc6, 0xc2, 0xff, 0xff,
        0x04, 0x00, 0x00, 0x00, 0x80, 0x01, 0x00, 0x00, 0x05, 0x66, 0xf1, 0xba,
        0x65, 0x1e, 0xcc, 0xbe, 0xf3, 0x10, 0x2f, 0x3e, 0xbc, 0x52, 0x15, 0x3e,
        0x27, 0x1d, 0xc0, 0xbe, 0xbb, 0x9d, 0xc7, 0xbc, 0x40, 0x33, 0xf3, 0xbc,
        0x5b, 0x3e, 0x2d, 0x3e, 0x07, 0x1b, 0xc4, 0xbd, 0xee, 0xa4, 0xd3, 0xbd,
        0xce, 0x69, 0x19, 0x3f, 0x4e, 0x75, 0xbd, 0xbd, 0xb1, 0x8b, 0x70, 0x3e,
        0x31, 0x23, 0x2d, 0xbd, 0x05, 0xb1, 0xc5, 0xbd, 0x25, 0xdd, 0x96, 0x3e,
        0x8d, 0xfb, 0x4f, 0xbe, 0x21, 0x78, 0x5a, 0xbd, 0xe0, 0x82, 0x03, 0xbf,
        0x4b, 0xc8, 0x8f, 0x3e, 0x4a, 0xee, 0x09, 0x3e, 0xf9, 0xb5, 0x07, 0xbe,
        0xfd, 0x2b, 0x3c, 0xbe, 0xe5, 0x79, 0x74, 0xbe, 0xd7, 0x64, 0xbe, 0x3c,
        0xd2, 0xa0, 0xfb, 0xbc, 0xc7, 0x9d, 0x10, 0x3b, 0x6b, 0x02, 0x6d, 0x3e,
        0xcd, 0xb6, 0x48, 0x3e, 0x3d, 0x54, 0x0d, 0x3c, 0x83, 0x0e, 0x28, 0x3e,
        0x0e, 0x62, 0x83, 0xbe, 0x6c, 0x0b, 0x66, 0x3d, 0x0f, 0x98, 0x5e, 0x3e,
        0x16, 0xcd, 0x4d, 0x3d, 0x79, 0x33, 0x50, 0xbd, 0x80, 0xc1, 0x75, 0xbc,
        0x4d, 0xe7, 0x40, 0x3e, 0x67, 0xd9, 0xc4, 0xbd, 0x20, 0xc9, 0x8c, 0x3e,
        0x29, 0x79, 0xad, 0xbd, 0x5a, 0xae, 0x15, 0xbe, 0x11, 0x81, 0x3e, 0x3e,
        0x72, 0x30, 0xde, 0xbd, 0x30, 0x11, 0x37, 0x3d, 0x8c, 0x4f, 0x05, 0x3e,
        0xc5, 0x91, 0xc4, 0xbc, 0xdd, 0x99, 0x3b, 0xbe, 0x54, 0x41, 0xde, 0xbb,
        0x6e, 0x78, 0x8f, 0xbd, 0x0e, 0x32, 0x30, 0xbb, 0x4e, 0xb8, 0x06, 0x3d,
        0xbd, 0xe7, 0xc9, 0xbd, 0xaa, 0x46, 0x01, 0x3d, 0xe4, 0x85, 0xd7, 0x3d,
        0x5a, 0xba, 0x0b, 0xbe, 0xc5, 0x46, 0xd4, 0x3c, 0x5e, 0x0c, 0x07, 0x3d,
        0x35, 0xfb, 0x15, 0xbe, 0x29, 0x1c, 0x39, 0x3c, 0x13, 0xcf, 0xa8, 0x3e,
        0x35, 0x98, 0x1d, 0x3e, 0x1f, 0x58, 0xbc, 0x3c, 0xe4, 0x2e, 0x1a, 0xbd,
        0x21, 0x86, 0x12, 0x3e, 0x04, 0x1e, 0x84, 0x3e, 0xe6, 0x9f, 0xba, 0x3d,
        0x81, 0x5e, 0x26, 0x3d, 0x1c, 0x87, 0x11, 0xbe, 0x4c, 0x5e, 0x21, 0x3e,
        0xdf, 0x49, 0x6d, 0x3d, 0xa3, 0x1f, 0x96, 0x3e, 0x10, 0xd4, 0xeb, 0x3d,
        0x81, 0x32, 0xa3, 0xbd, 0xe2, 0x5b, 0xf3, 0xbd, 0xd7, 0x93, 0x9a, 0x3d,
        0x97, 0x0e, 0x6d, 0xbd, 0x8c, 0x98, 0xdb, 0xbd, 0xb6, 0x53, 0x37, 0x3d,
        0x27, 0x46, 0x19, 0xbd, 0x88, 0x9a, 0x1d, 0xbe, 0xbf, 0x7a, 0x9f, 0xbb,
        0x2e, 0xaf, 0x51, 0xbd, 0xb6, 0x3a, 0x06, 0xbe, 0xe6, 0x40, 0xa6, 0x3c,
        0xba, 0xff, 0x1e, 0xbe, 0x73, 0x3a, 0x3b, 0xbe, 0x8d, 0x6b, 0x8b, 0xbe,
        0xb6, 0x7e, 0x85, 0xbe, 0x4d, 0xc5, 0x43, 0x3e, 0x1e, 0xe2, 0x6f, 0x3d,
        0xe9, 0x26, 0x89, 0x3e, 0x18, 0x4d, 0x81, 0x3e, 0xc4, 0x00, 0x7c, 0x3d,
        0xe7, 0xeb, 0x22, 0x3e, 0x55, 0xce, 0x95, 0x3e, 0x2e, 0xc4, 0xff, 0xff,
        0x10, 0x00, 0x00, 0x00, 0x09, 0x00, 0x00, 0x00, 0x1c, 0x00, 0x00, 0x00,
        0x38, 0x00, 0x00, 0x00, 0x04, 0x00, 0x00, 0x00, 0x08, 0x00, 0x00, 0x00,
        0x04, 0x00, 0x00, 0x00, 0x03, 0x00, 0x00, 0x00, 0x01, 0x00, 0x00, 0x00,
        0x18, 0x00, 0x00, 0x00, 0x73, 0x65, 0x71, 0x75, 0x65, 0x6e, 0x74, 0x69,
        0x61, 0x6c, 0x2f, 0x63, 0x6f, 0x6e, 0x76, 0x32, 0x64, 0x2f, 0x43, 0x6f,
        0x6e, 0x76, 0x32, 0x44, 0x00, 0x00, 0x00, 0x00, 0xb8, 0xc3, 0xff, 0xff,
        0x9e, 0xc4, 0xff, 0xff, 0x04, 0x00, 0x00, 0x00, 0x00, 0x01, 0x00, 0x00,
        0x22, 0x6a, 0x71, 0xbe, 0x44, 0x60, 0xa8, 0x3e, 0xe2, 0x84, 0xd4, 0xbd,
        0xbf, 0x2a, 0xf9, 0x3e, 0x0c, 0xca, 0xe2, 0x3e, 0xad, 0x92, 0x08, 0x3d,
        0xfe, 0x85, 0xf8, 0xbd, 0x3a, 0xa8, 0xd2, 0xbe, 0xa1, 0x9f, 0x37, 0xbe,
        0x5b, 0xf8, 0x1e, 0xbe, 0x90, 0x28, 0x97, 0xbe, 0x5b, 0xf1, 0x4b, 0xbe,
        0xc1, 0x56, 0x22, 0xbd, 0x63, 0x38, 0x98, 0xbe, 0x7c, 0x3b, 0x6a, 0xbe,
        0x45, 0x9d, 0x88, 0xbd, 0x58, 0x65, 0x93, 0xbe, 0xa2, 0x69, 0xa7, 0xbe,
        0x20, 0x99, 0xea, 0xbd, 0x2f, 0x7e, 0x01, 0x3f, 0x58, 0x8c, 0xca, 0x3e,
        0xc5, 0x06, 0xb1, 0x3d, 0x72, 0x41, 0x7e, 0xbe, 0x6c, 0x75, 0x53, 0xbe,
        0xcf, 0x21, 0x57, 0xbe, 0xf5, 0xac, 0xa4, 0xbe, 0xda, 0x73, 0x2c, 0xbe,
        0x64, 0x3f, 0x72, 0x3e, 0x3c, 0x5e, 0x6f, 0xbd, 0xb4, 0xea, 0x87, 0xbe,
        0x69, 0x6e, 0xe4, 0xbe, 0xa0, 0x6e, 0xae, 0x3e, 0x94, 0x12, 0x0c, 0xbf,
        0x2d, 0xaa, 0xa9, 0xbe, 0x87, 0xd2, 0x02, 0xbf, 0xba, 0xee, 0x37, 0xbf,
        0x3b, 0x73, 0x9e, 0xbe, 0xf5, 0x26, 0x76, 0xbe, 0x16, 0xff, 0x7c, 0x3d,
        0x4a, 0x52, 0x93, 0xbd, 0xb6, 0x09, 0x20, 0xbf, 0x03, 0xb3, 0x94, 0x3e,
        0xa0, 0x7a, 0x9b, 0x3e, 0x92, 0x24, 0xff, 0x3d, 0x72, 0x25, 0x42, 0xbf,
        0x44, 0xab, 0xdf, 0xbe, 0x83, 0xf6, 0x59, 0xbe, 0x27, 0x28, 0x60, 0x3e,
        0x02, 0x04, 0x06, 0xbf, 0x0d, 0x53, 0x5d, 0x3d, 0xe6, 0xc5, 0x00, 0xbf,
        0xec, 0x7a, 0x8b, 0xbe, 0xbb, 0xfa, 0xca, 0xbe, 0x44, 0x3f, 0x8f, 0x3d,
        0xad, 0x99, 0x05, 0x3f, 0x55, 0x41, 0xa8, 0xbe, 0x3b, 0xe9, 0x26, 0xbf,
        0x5a, 0x84, 0xaf, 0x3d, 0xd8, 0x6e, 0x15, 0x3e, 0x96, 0xd0, 0x72, 0x3e,
        0x15, 0x97, 0x55, 0xbf, 0xeb, 0x7a, 0x91, 0xbe, 0x75, 0x04, 0x98, 0xbe,
        0xd4, 0x37, 0xbf, 0x3e, 0x86, 0xc5, 0xff, 0xff, 0x10, 0x00, 0x00, 0x00,
        0x08, 0x00, 0x00, 0x00, 0x14, 0x00, 0x00, 0x00, 0x30, 0x00, 0x00, 0x00,
        0x02, 0x00, 0x00, 0x00, 0x04, 0x00, 0x00, 0x00, 0x10, 0x00, 0x00, 0x00,
        0x19, 0x00, 0x00, 0x00, 0x73, 0x65, 0x71, 0x75, 0x65, 0x6e, 0x74, 0x69,
        0x61, 0x6c, 0x2f, 0x64, 0x65, 0x6e, 0x73, 0x65, 0x5f, 0x31, 0x2f, 0x4d,
        0x61, 0x74, 0x4d, 0x75, 0x6c, 0x00, 0x00, 0x00, 0x08, 0xc5, 0xff, 0xff,
        0xee, 0xc5, 0xff, 0xff, 0x04, 0x00, 0x00, 0x00, 0x00, 0x38, 0x00, 0x00,
        0xe0, 0x99, 0x8b, 0xbe, 0xf2, 0x3f, 0x35, 0xbd, 0xc9, 0x86, 0x0a, 0x3e,
        0x74, 0x88, 0x52, 0x3d, 0x85, 0xd1, 0xba, 0x3d, 0xa7, 0xcc, 0xa6, 0xbd,
        0xa9, 0x43, 0xbe, 0x37, 0x4e, 0xe0, 0x6b, 0xbc, 0x46, 0xa1, 0xae, 0x3d,
        0xba, 0x3d, 0x19, 0xbe, 0xf5, 0x0c, 0x69, 0xbe, 0xcf, 0xac, 0x44, 0xbe,
        0xa9, 0xec, 0x42, 0x3e, 0x4a, 0x6a, 0x9e, 0x3e, 0x3b, 0xd7, 0xa0, 0x3e,
        0xfa, 0x1d, 0x16, 0xbf, 0xa3, 0xb1, 0x77, 0xbc, 0xd8, 0xd6, 0xb3, 0xbd,
        0x67, 0x3d, 0x0f, 0xbd, 0x44, 0xe2, 0x07, 0x3e, 0x51, 0xd8, 0xd9, 0x3e,
        0x8f, 0xaa, 0x4c, 0xbe, 0x47, 0x2a, 0x11, 0xbe, 0x0a, 0x09, 0x54, 0xbe,
        0xeb, 0x90, 0x72, 0xbd, 0xf7, 0x41, 0x71, 0xbe, 0x7a, 0xa1, 0x61, 0x3e,
        0xd4, 0x98, 0x8b, 0xbd, 0xbd, 0xaf, 0x9a, 0x3c, 0x0f, 0x4a, 0xef, 0x3d,
        0xb3, 0x93, 0x9b, 0x3e, 0x21, 0x5c, 0xb2, 0xbe, 0x49, 0x9d, 0x4d, 0xbe,
        0x43, 0x37, 0x86, 0xbd, 0x3d, 0xd5, 0xdc, 0xbd, 0x81, 0x3a, 0x2b, 0xbe,
        0xe8, 0x8b, 0x93, 0x3d, 0xb9, 0xce, 0x3a, 0xbd, 0x4d, 0xf2, 0xb6, 0xbd,
        0xb5, 0x6b, 0x82, 0xbd, 0x7a, 0x59, 0x24, 0x3e, 0xff, 0x70, 0x0b, 0x3e,
        0xa3, 0xed, 0x3c, 0xbe, 0xa7, 0x3e, 0xc1, 0xbc, 0xa3, 0x85, 0xcf, 0x3d,
        0x9c, 0x5c, 0xdf, 0x3c, 0xda, 0x1e, 0x7b, 0xbd, 0x21, 0xdf, 0xbb, 0xbd,
        0x31, 0x36, 0x06, 0x3d, 0x83, 0x4e, 0x07, 0xbe, 0x96, 0x85, 0x4a, 0x3e,
        0xad, 0xbc, 0x26, 0xbd, 0xb9, 0xb8, 0x88, 0xbc, 0xc5, 0x86, 0xbb, 0x3e,
        0xe4, 0x17, 0x90, 0xbc, 0xae, 0xc8, 0x20, 0xbe, 0x2c, 0xa2, 0x4e, 0x3e,
        0x45, 0xf0, 0x33, 0xbe, 0x36, 0xbf, 0xc9, 0xbd, 0xe8, 0xc4, 0x24, 0xbe,
        0x83, 0xfa, 0xc2, 0x3d, 0xb8, 0xf6, 0x08, 0x3e, 0xff, 0x26, 0xb2, 0x3d,
        0x0a, 0x8a, 0x17, 0xbe, 0x4c, 0x92, 0x90, 0x3e, 0x70, 0xa5, 0x8c, 0xbd,
        0xa0, 0x95, 0x85, 0x3e, 0x28, 0xf2, 0x12, 0xbe, 0x66, 0xf6, 0x75, 0xbd,
        0x1a, 0x3b, 0xda, 0x3b, 0x9e, 0x81, 0xd7, 0x3c, 0xcd, 0x5f, 0x33, 0xbe,
        0xe6, 0x68, 0x1e, 0x3e, 0xa6, 0x59, 0xe4, 0xbd, 0x6f, 0xd8, 0x0c, 0xbd,
        0x6a, 0xbe, 0x97, 0xbd, 0xe6, 0x78, 0x9f, 0xbd, 0x42, 0x6a, 0xc3, 0x3e,
        0x74, 0xc7, 0x81, 0x3d, 0x0e, 0x62, 0x56, 0xbe, 0xbf, 0x7f, 0x85, 0x3e,
        0x2a, 0x53, 0x4b, 0xbd, 0x63, 0xe5, 0xc6, 0x3e, 0x5f, 0x38, 0xe3, 0x3d,
        0xcf, 0x9a, 0x0b, 0xbd, 0x7c, 0x13, 0xe8, 0x3d, 0x6b, 0x56, 0x1b, 0x3d,
        0xe2, 0x51, 0x39, 0xbe, 0xea, 0x31, 0x37, 0x3e, 0x20, 0x7f, 0xa8, 0xbe,
        0x36, 0x32, 0x00, 0xbd, 0x7e, 0x89, 0x1c, 0xbe, 0xd7, 0xf0, 0xac, 0xbc,
        0x0c, 0x8c, 0xd1, 0x3e, 0xdf, 0xc3, 0xa6, 0x3d, 0x56, 0xb0, 0x0e, 0xbe,
        0xa3, 0x57, 0x90, 0x3e, 0xe3, 0x3a, 0x6b, 0xbd, 0x68, 0xe6, 0x6b, 0x3e,
        0xcd, 0xaa, 0x7a, 0x3c, 0x03, 0x05, 0x86, 0x3d, 0xba, 0x1f, 0xfb, 0x3c,
        0x5c, 0xbd, 0x98, 0x3d, 0xe4, 0x18, 0xc7, 0x3c, 0x8b, 0x85, 0x7f, 0x3e,
        0x10, 0x76, 0x4e, 0xbe, 0xa4, 0x71, 0x64, 0xbe, 0x97, 0x56, 0xb1, 0xbe,
        0x3f, 0xd4, 0x87, 0x3d, 0x81, 0xd7, 0x48, 0x3e, 0x49, 0x92, 0x9a, 0x3d,
        0xdc, 0x9e, 0x30, 0xbe, 0xad, 0x67, 0x8b, 0x3e, 0x0b, 0x5c, 0xc5, 0xbc,
        0x58, 0xb0, 0x4c, 0x3e, 0x67, 0x8f, 0xb8, 0xbc, 0x16, 0x0b, 0x22, 0xbe,
        0x8e, 0xbf, 0xa6, 0x3d, 0xf3, 0x0d, 0x38, 0x3c, 0x5a, 0xd2, 0x86, 0xbe,
        0x77, 0x38, 0xb6, 0x3e, 0xbc, 0x35, 0x33, 0xbe, 0xc1, 0x35, 0x3b, 0x3e,
        0xfd, 0x3b, 0xc4, 0xbb, 0x98, 0x36, 0x03, 0x3e, 0x65, 0x10, 0xa7, 0x3e,
        0xe1, 0x36, 0xa1, 0xbd, 0x3e, 0xb0, 0xc9, 0xbd, 0x22, 0x20, 0xe1, 0x3d,
        0xe9, 0x68, 0xd6, 0xbc, 0x0e, 0x0e, 0x72, 0x3d, 0x92, 0xed, 0x1c, 0x3e,
        0x7c, 0xdc, 0x0f, 0xbd, 0x37, 0x79, 0x91, 0x3e, 0x48, 0x9f, 0xce, 0xbd,
        0x15, 0x0d, 0x68, 0xbd, 0x79, 0x27, 0xb4, 0x3e, 0x91, 0x5b, 0x88, 0xbe,
        0xd8, 0x53, 0xcc, 0x3d, 0x34, 0xe2, 0x2f, 0xbe, 0x40, 0x88, 0x92, 0xbc,
        0x0d, 0xad, 0x33, 0x3f, 0x63, 0xde, 0xe5, 0x3d, 0x8a, 0x43, 0x12, 0xbe,
        0x85, 0x2c, 0x55, 0xbe, 0x51, 0x49, 0x88, 0xbd, 0xbb, 0xd8, 0x8c, 0x3e,
        0x80, 0x6c, 0xa1, 0x3e, 0xab, 0x6a, 0x10, 0x3e, 0x57, 0x7b, 0xd6, 0x3d,
        0x1b, 0xe0, 0xc8, 0xbd, 0xad, 0x36, 0x32, 0xbe, 0x91, 0x96, 0xa8, 0xbc,
        0xd7, 0x12, 0x50, 0xbe, 0xae, 0x3b, 0x0e, 0xbe, 0x2d, 0x50, 0x21, 0xbe,
        0x09, 0x43, 0xf2, 0xbd, 0x19, 0xc1, 0x06, 0x3e, 0xf4, 0x09, 0x13, 0x3e,
        0xa0, 0x45, 0xa1, 0xbe, 0x2f, 0xa0, 0xca, 0xbd, 0x2b, 0x66, 0x8e, 0xbd,
        0x4e, 0x70, 0x35, 0xbd, 0x5a, 0x62, 0x71, 0x3e, 0x29, 0xa7, 0x48, 0x3d,
        0x62, 0x06, 0x64, 0x3c, 0x65, 0xb6, 0x93, 0xbe, 0xb8, 0x70, 0x00, 0xbe,
        0x43, 0x11, 0x15, 0x3e, 0x61, 0x05, 0x86, 0xbc, 0xb8, 0x62, 0xf1, 0x3c,
        0xa0, 0x1f, 0x30, 0xbc, 0xe2, 0xc4, 0x52, 0xbd, 0xe8, 0x4b, 0x51, 0x3d,
        0xa8, 0x84, 0x21, 0xbe, 0x98, 0xf4, 0x9c, 0xbe, 0xab, 0x5c, 0x9c, 0xbb,
        0xb7, 0x06, 0xb0, 0x3a, 0xd0, 0xb1, 0xd5, 0xbd, 0xa1, 0x93, 0x55, 0x3e,
        0x6f, 0xc0, 0x9a, 0xbe, 0xd4, 0xe1, 0xc1, 0xbd, 0xd7, 0x1f, 0x95, 0xbe,
        0x72, 0x4f, 0x81, 0xbe, 0x2a, 0x5b, 0x51, 0x3e, 0xba, 0x26, 0xc2, 0x3d,
        0xf6, 0xea, 0xd2, 0x3d, 0x82, 0xeb, 0x82, 0x3e, 0x6e, 0x3c, 0x17, 0x3c,
        0xa2, 0x53, 0xb5, 0x3d, 0x84, 0x70, 0xed, 0xbd, 0x59, 0x80, 0x7c, 0xbe,
        0x65, 0xce, 0x56, 0x3b, 0x15, 0x96, 0x58, 0xbd, 0x50, 0x8d, 0xcf, 0x3d,
        0x70, 0x0e, 0xb5, 0x3e, 0x3c, 0x0f, 0x1d, 0xbe, 0xbd, 0xec, 0x1a, 0x3e,
        0x20, 0x6b, 0x3e, 0xbe, 0x45, 0x6f, 0x1a, 0x3d, 0xa4, 0x33, 0xae, 0x3e,
        0xd7, 0xd4, 0x09, 0x3e, 0x5a, 0xb5, 0x72, 0x3b, 0xf2, 0xb3, 0x57, 0x3d,
        0xfb, 0xb0, 0x90, 0x3d, 0x88, 0x21, 0x08, 0x3e, 0xf0, 0x7a, 0x9f, 0xbd,
        0xdb, 0x7d, 0x49, 0x3b, 0xd8, 0x06, 0x04, 0xbe, 0xf3, 0x26, 0xf6, 0xbd,
        0xca, 0x77, 0xc5, 0x3b, 0x55, 0x22, 0xaf, 0x3e, 0xd1, 0x92, 0x16, 0xbe,
        0x82, 0x38, 0x95, 0xbd, 0x6c, 0x95, 0x07, 0xbe, 0x53, 0x9e, 0x5c, 0xbe,
        0x80, 0x15, 0x8c, 0x3e, 0x10, 0x9a, 0xd9, 0x3d, 0xc0, 0x58, 0x4d, 0xbe,
        0xe0, 0x2b, 0x87, 0xbd, 0xe5, 0x97, 0x97, 0x3e, 0x1f, 0xa2, 0x43, 0x3d,
        0x45, 0xf1, 0xaa, 0xbd, 0xcf, 0x7a, 0xc7, 0xbd, 0xad, 0x77, 0x0f, 0xbe,
        0xe0, 0xe1, 0x2d, 0xbe, 0xae, 0x14, 0x13, 0x3c, 0x69, 0x36, 0x04, 0xbe,
        0x7e, 0x20, 0xc8, 0xbc, 0x04, 0x29, 0x4e, 0xbe, 0x89, 0x40, 0xf6, 0x3a,
        0x04, 0x43, 0x09, 0xbe, 0xf6, 0x22, 0x99, 0xbd, 0x14, 0x61, 0xf0, 0x3d,
        0xe8, 0x73, 0x72, 0xbd, 0xee, 0xc6, 0xa0, 0xbd, 0x31, 0x25, 0x9d, 0xbd,
        0x39, 0xe8, 0xcf, 0x3d, 0x07, 0x58, 0xa4, 0xbd, 0x10, 0x2e, 0x94, 0xbd,
        0xc1, 0xc7, 0x15, 0xbd, 0x83, 0x74, 0xbf, 0xbc, 0x0b, 0x75, 0xd0, 0xbd,
        0x94, 0xb3, 0x57, 0x3d, 0x64, 0x3f, 0x2c, 0xbe, 0x05, 0x25, 0x3f, 0x3d,
        0x0d, 0x98, 0x84, 0xbd, 0x97, 0xbd, 0x1d, 0xbe, 0x72, 0xf0, 0xea, 0x3d,
        0x43, 0x80, 0xf4, 0xbd, 0x36, 0xc5, 0x26, 0xbe, 0x17, 0x96, 0x11, 0xbe,
        0x11, 0x1b, 0xbc, 0x3d, 0x3c, 0x70, 0x15, 0xbe, 0xfd, 0x78, 0x8d, 0xbd,
        0x4a, 0xcf, 0x96, 0xbd, 0xe9, 0x47, 0x0e, 0xbe, 0x7a, 0xa0, 0x0b, 0x3d,
        0x1f, 0xce, 0xbc, 0xbd, 0xc0, 0x58, 0xac, 0xbd, 0xb3, 0x83, 0x0f, 0xbe,
        0x6a, 0x64, 0xfe, 0xbc, 0x24, 0x84, 0xc2, 0x3c, 0xe1, 0xdf, 0x18, 0x3d,
        0xe2, 0xd3, 0xd9, 0x3d, 0xb9, 0x76, 0x30, 0xbe, 0xcb, 0x97, 0x02, 0xbe,
        0x3d, 0x30, 0x0c, 0x3e, 0x59, 0x30, 0x09, 0x3e, 0x14, 0xa4, 0x23, 0xbe,
        0xda, 0xea, 0x18, 0xbe, 0xa1, 0x84, 0x97, 0xbb, 0x4d, 0x42, 0x08, 0xbe,
        0xe7, 0xfd, 0x8e, 0xbe, 0x66, 0x60, 0x8e, 0x3d, 0x42, 0x75, 0xf7, 0xbd,
        0xe1, 0xf4, 0x63, 0xbd, 0x5b, 0x92, 0x17, 0x3e, 0xb3, 0xbc, 0x01, 0x3c,
        0x79, 0x36, 0x58, 0xbc, 0x75, 0xd0, 0x90, 0xbd, 0x50, 0x6e, 0x48, 0xbe,
        0x03, 0x1b, 0x2b, 0xbe, 0x70, 0x0b, 0xac, 0xbd, 0x60, 0xe5, 0xcb, 0xbc,
        0x1a, 0x95, 0xf6, 0xbd, 0x4e, 0x3d, 0xc8, 0x3d, 0x6f, 0xe0, 0x15, 0xbe,
        0xfc, 0xec, 0x61, 0xbd, 0x80, 0x4c, 0xd4, 0xbd, 0xf6, 0x2f, 0x96, 0x3d,
        0xd1, 0xf2, 0x0d, 0x3e, 0x9e, 0xef, 0x32, 0xbd, 0x46, 0x33, 0x92, 0x3d,
        0x10, 0x94, 0xb5, 0xbd, 0x0d, 0x99, 0x0e, 0xbe, 0xff, 0xf2, 0x3c, 0x3c,
        0xbd, 0xa6, 0x0b, 0x3d, 0xac, 0x07, 0x47, 0xbe, 0xe8, 0xb6, 0xcf, 0xbd,
        0x44, 0xb4, 0x1e, 0x3d, 0x4a, 0x25, 0xa1, 0x3d, 0x22, 0x30, 0x9b, 0xbd,
        0x00, 0xc7, 0x1c, 0xbe, 0xc6, 0x9a, 0xf9, 0xbd, 0x39, 0x8e, 0x7a, 0xbe,
        0x5d, 0x1b, 0xf4, 0xbc, 0x24, 0x0d, 0x1a, 0xbe, 0xdf, 0xff, 0x1a, 0x3d,
        0xc2, 0x72, 0x98, 0x3d, 0x34, 0x6f, 0x05, 0xbd, 0xb9, 0x8b, 0x01, 0x3e,
        0x87, 0xfe, 0x16, 0x3e, 0x60, 0xd8, 0x89, 0xbb, 0x2a, 0x38, 0x14, 0xbe,
        0xdf, 0x93, 0x46, 0x3d, 0x28, 0xf7, 0x26, 0xbe, 0xec, 0x58, 0xfe, 0xbc,
        0x1f, 0xeb, 0xca, 0xbd, 0x84, 0xb4, 0x68, 0xbe, 0x9f, 0x54, 0x77, 0xbc,
        0xfb, 0xb7, 0x21, 0xbe, 0xcf, 0xb8, 0xee, 0x3d, 0x42, 0xa9, 0xb1, 0x3d,
        0xea, 0x33, 0x21, 0xbe, 0x74, 0x7d, 0x29, 0x3d, 0xd1, 0xeb, 0x50, 0xbe,
        0xbd, 0x4a, 0x38, 0xbe, 0xd9, 0x05, 0x00, 0x3e, 0xf6, 0x82, 0xb9, 0xbd,
        0xe8, 0x21, 0x33, 0xbe, 0x93, 0x63, 0x8f, 0xbc, 0xb5, 0x51, 0x17, 0x3e,
        0xdc, 0xd2, 0x1a, 0x3e, 0xe0, 0x32, 0xf3, 0x3d, 0xc5, 0x1b, 0x26, 0xbe,
        0xc5, 0x33, 0xaa, 0x3d, 0x9a, 0xb9, 0x22, 0xbe, 0x7b, 0x59, 0x30, 0xbe,
        0x30, 0xbf, 0x7f, 0x3c, 0x18, 0x81, 0x02, 0xbd, 0xe2, 0x70, 0xe2, 0xbc,
        0xe1, 0x26, 0x85, 0xbe, 0xb3, 0x7f, 0x24, 0xbe, 0x9f, 0xde, 0x14, 0xbe,
        0x80, 0x23, 0xb6, 0x3d, 0x48, 0x39, 0xb6, 0xbd, 0x33, 0x82, 0xe5, 0xbd,
        0x13, 0xe6, 0xcd, 0xbd, 0x53, 0x10, 0xa7, 0x3d, 0xbd, 0x97, 0xf9, 0x3c,
        0x51, 0x33, 0x5d, 0x3c, 0x1e, 0x8d, 0xd6, 0x3d, 0x3c, 0xe5, 0x63, 0xbe,
        0xdd, 0xf4, 0x85, 0x3d, 0xc7, 0xf7, 0xdd, 0xbd, 0x6e, 0x3d, 0x1f, 0xbe,
        0x21, 0xdf, 0x6a, 0x3d, 0xe6, 0x30, 0x16, 0xbe, 0xd2, 0x4c, 0xb6, 0xbd,
        0xff, 0x1c, 0x96, 0xbd, 0xa9, 0xa6, 0xe8, 0xbd, 0xb8, 0x96, 0x6c, 0xbd,
        0xa4, 0xd0, 0x71, 0x3d, 0x1d, 0xad, 0x11, 0xbe, 0xb5, 0xa4, 0xb7, 0x3d,
        0xf6, 0xa7, 0x00, 0x3d, 0xfa, 0x5e, 0x51, 0xbe, 0x79, 0x44, 0xa0, 0xbd,
        0x68, 0x1e, 0x86, 0x3c, 0x8c, 0xfa, 0xea, 0x3d, 0x06, 0xc7, 0xc4, 0x3d,
        0xcf, 0x28, 0x33, 0xbe, 0x44, 0x19, 0x1a, 0x3d, 0x06, 0x43, 0x90, 0xbd,
        0x25, 0x3d, 0x53, 0xbe, 0x9d, 0x54, 0x1e, 0xbc, 0xd3, 0x33, 0xa5, 0xbd,
        0xf7, 0x71, 0x74, 0xbc, 0x29, 0x77, 0x4a, 0x3d, 0x66, 0xcd, 0x21, 0xbe,
        0x5e, 0xae, 0x20, 0xbe, 0x3f, 0x8c, 0xef, 0x3d, 0xbc, 0x5e, 0xf9, 0xbd,
        0x80, 0xb9, 0x3f, 0xbd, 0x72, 0x6c, 0x7d, 0xbd, 0x91, 0x4c, 0x34, 0xbe,
        0x70, 0x56, 0x03, 0x3c, 0x67, 0x2a, 0x28, 0xbd, 0x36, 0x12, 0x60, 0xbd,
        0xe5, 0x02, 0xa8, 0xbd, 0x2f, 0xc2, 0x43, 0xbe, 0x11, 0xbc, 0x04, 0xbe,
        0x6d, 0x9c, 0xe1, 0x3b, 0xd7, 0x74, 0x79, 0x3d, 0xe6, 0x3a, 0x4a, 0x3d,
        0x45, 0x00, 0xe5, 0xbc, 0xe4, 0x09, 0x01, 0xbe, 0x5a, 0x96, 0x9c, 0xbd,
        0xe4, 0x09, 0xef, 0xbc, 0xe4, 0xb3, 0xae, 0xbd, 0xec, 0x37, 0x74, 0xbe,
        0x05, 0x3e, 0x12, 0x3d, 0x8c, 0x46, 0xaf, 0xbd, 0x48, 0x51, 0xb1, 0xbd,
        0xae, 0x9b, 0x81, 0xbb, 0x5d, 0x78, 0xa8, 0xbd, 0xd3, 0xbc, 0x28, 0xbe,
        0x42, 0x18, 0x6c, 0x3d, 0x71, 0xfb, 0xa8, 0x3d, 0xb6, 0x92, 0x39, 0xbe,
        0x5d, 0x78, 0x9c, 0x3d, 0x51, 0x46, 0x2f, 0x3d, 0x60, 0xa7, 0xb0, 0x3d,
        0x2e, 0x7f, 0x05, 0xbe, 0x0c, 0xb6, 0xcb, 0x3c, 0x90, 0xc7, 0x58, 0xbc,
        0x51, 0xf3, 0x48, 0x3d, 0xc5, 0x93, 0xe4, 0xbc, 0x5d, 0xec, 0x0d, 0x3e,
        0x5c, 0x23, 0x75, 0xbd, 0xce, 0xff, 0x01, 0xbe, 0xac, 0x33, 0x3a, 0xbe,
        0x61, 0x4c, 0xee, 0xbc, 0xd5, 0x6c, 0x03, 0x3e, 0xc4, 0x83, 0x7c, 0xbd,
        0xeb, 0x56, 0x20, 0xbe, 0xf6, 0x2c, 0x33, 0x3c, 0x62, 0x5a, 0x1d, 0xbe,
        0xc4, 0xae, 0x01, 0x3d, 0xc6, 0x47, 0xbb, 0xbc, 0xd6, 0xf2, 0xe3, 0xbc,
        0x92, 0x64, 0xce, 0xbd, 0xe9, 0xbb, 0x53, 0xbc, 0xe6, 0x77, 0x06, 0x3d,
        0x67, 0x97, 0x8a, 0x3d, 0x3f, 0x31, 0xa2, 0x3a, 0x80, 0xe2, 0xcd, 0xbd,
        0x2f, 0x5f, 0x2c, 0xbe, 0x8e, 0xc7, 0xfc, 0xbb, 0xd8, 0x48, 0xb8, 0x3c,
        0x43, 0x11, 0x38, 0xbc, 0x5e, 0xc1, 0xd9, 0xbd, 0x8c, 0x82, 0x3e, 0xbe,
        0x6e, 0xfe, 0xea, 0x3d, 0x1f, 0xe1, 0x53, 0xbe, 0xe4, 0x08, 0xd6, 0xbd,
        0xc4, 0x4b, 0x8a, 0xbe, 0x36, 0xee, 0x18, 0xbf, 0x25, 0x04, 0x86, 0x3e,
        0xa9, 0xc6, 0xf8, 0x3d, 0x0b, 0xf1, 0x85, 0xbd, 0xd3, 0xfa, 0x33, 0x3e,
        0x12, 0x1c, 0x1d, 0xbe, 0xeb, 0xfa, 0x4a, 0x3d, 0xd1, 0x89, 0x8b, 0x3e,
        0x57, 0x4c, 0xd4, 0x3e, 0x94, 0x20, 0xf7, 0x3c, 0xc9, 0xaa, 0x1b, 0x3e,
        0xd9, 0xda, 0x65, 0xbe, 0x69, 0x18, 0xbb, 0xbd, 0x42, 0xa4, 0xa2, 0x3e,
        0xa3, 0xf4, 0x45, 0x3e, 0x4e, 0x0a, 0x36, 0xbf, 0x66, 0xe8, 0x03, 0xbf,
        0x26, 0xf8, 0x7b, 0x3d, 0x99, 0xec, 0x09, 0x3c, 0xbb, 0x70, 0x93, 0xbd,
        0xce, 0xf4, 0x3c, 0x3e, 0x45, 0xc5, 0x19, 0xbe, 0xac, 0xdd, 0x9a, 0x3d,
        0xe4, 0x4c, 0x08, 0xbe, 0x79, 0xc5, 0x05, 0xbd, 0x96, 0xea, 0x98, 0xbe,
        0xce, 0xdd, 0x95, 0x3e, 0x5e, 0xe6, 0x69, 0xbe, 0xfe, 0x5c, 0xc1, 0xbb,
        0x84, 0x6c, 0xbd, 0x3e, 0x74, 0x31, 0xc7, 0x3e, 0x3a, 0x84, 0x11, 0xbf,
        0x83, 0xb6, 0x87, 0xbe, 0xc8, 0xfa, 0x7f, 0xbe, 0x4e, 0x5b, 0x27, 0x3e,
        0xeb, 0xb1, 0xa2, 0xbe, 0x7d, 0x7e, 0x01, 0x3e, 0x14, 0xa8, 0x25, 0xbd,
        0x16, 0x55, 0xc7, 0x3d, 0x11, 0x95, 0x1f, 0xbe, 0x35, 0xa5, 0xdc, 0xbd,
        0xa3, 0x08, 0x8f, 0xbe, 0x5e, 0xfa, 0x44, 0xbe, 0x1b, 0x97, 0x5e, 0xbe,
        0xa0, 0x86, 0x77, 0xbc, 0x7b, 0x10, 0x28, 0xbd, 0xcf, 0xed, 0x5b, 0x3e,
        0x67, 0xe8, 0x86, 0xbe, 0x4f, 0xf0, 0x9c, 0xbd, 0xb1, 0x3f, 0xa9, 0xbe,
        0xaf, 0x94, 0x0a, 0x3e, 0xd7, 0xdd, 0xc5, 0xbd, 0x11, 0x97, 0xd7, 0xbc,
        0x4d, 0xd2, 0x69, 0xbd, 0x35, 0x8c, 0x6f, 0xbd, 0xa7, 0x1b, 0xe6, 0xbc,
        0xd9, 0x65, 0xa7, 0xbd, 0xde, 0xec, 0x1b, 0xbe, 0x91, 0x5f, 0x31, 0xbd,
        0xde, 0x54, 0x1b, 0xbd, 0xba, 0x7c, 0x4e, 0xbe, 0x38, 0x7b, 0xa2, 0x3e,
        0x12, 0xf7, 0x39, 0x3d, 0x69, 0x27, 0xf1, 0xbd, 0xa1, 0x75, 0x6e, 0x3e,
        0x3b, 0x85, 0xfc, 0xbe, 0x24, 0x56, 0xbf, 0x3c, 0x05, 0x8b, 0x2a, 0xbe,
        0x05, 0x54, 0xc7, 0x3d, 0x3e, 0xfa, 0x4e, 0xbe, 0xcc, 0xd9, 0x03, 0xbd,
        0x22, 0x62, 0x2a, 0xbe, 0xdd, 0xf8, 0x81, 0xbe, 0x56, 0xbf, 0x41, 0xbe,
        0xf9, 0x9a, 0x2d, 0x3d, 0x3d, 0xc9, 0x38, 0xbb, 0x4f, 0x3f, 0x3c, 0xbe,
        0xdc, 0x19, 0x60, 0x3d, 0xb8, 0xf9, 0x86, 0x3d, 0x54, 0x49, 0xed, 0xbc,
        0xa9, 0x7f, 0x6c, 0x3d, 0x0d, 0x22, 0x01, 0xbf, 0x42, 0x22, 0x05, 0x3e,
        0x5b, 0x90, 0x43, 0xbd, 0x80, 0xfe, 0x16, 0x3e, 0xed, 0xc6, 0xb7, 0xbc,
        0x0e, 0xc1, 0x93, 0xbd, 0x50, 0xd6, 0x91, 0xbe, 0x3c, 0x64, 0x1a, 0x3c,
        0xb0, 0xba, 0x95, 0xbc, 0x59, 0x04, 0xc9, 0xbe, 0x75, 0xe5, 0x46, 0x3d,
        0xad, 0xe9, 0xda, 0xbd, 0x2f, 0xdc, 0x73, 0x3c, 0x52, 0xcf, 0x65, 0x3b,
        0x61, 0xd2, 0x47, 0x3d, 0x56, 0x12, 0x63, 0x3e, 0x4d, 0x8b, 0x03, 0xbe,
        0xe5, 0x20, 0x22, 0x3e, 0x9c, 0x41, 0xf5, 0xbd, 0x56, 0x3b, 0xc1, 0x3d,
        0xba, 0xc2, 0x74, 0x3d, 0xea, 0x54, 0xef, 0xbd, 0x61, 0x79, 0x91, 0xbd,
        0x2c, 0x02, 0x40, 0x3e, 0xa9, 0xd5, 0x05, 0xbe, 0x17, 0xf1, 0xbe, 0x3d,
        0xe6, 0xb5, 0x2b, 0xbd, 0x72, 0x33, 0x35, 0xbe, 0xd6, 0x6d, 0x71, 0xbd,
        0xd4, 0x73, 0x86, 0xbc, 0x50, 0xd6, 0xec, 0x3c, 0xd9, 0x9a, 0xb2, 0x3d,
        0x67, 0x68, 0x1b, 0x3d, 0x9a, 0xe6, 0x1a, 0x3e, 0xb9, 0x1b, 0x10, 0xbe,
        0xbf, 0xaf, 0x8b, 0x3c, 0x04, 0x6b, 0x52, 0xbd, 0xa9, 0x5a, 0xb4, 0xbd,
        0x61, 0xfc, 0x2c, 0xbe, 0x09, 0x93, 0x78, 0x3e, 0xe8, 0x1b, 0xaf, 0xbe,
        0xb1, 0x6c, 0x2c, 0x3e, 0x3a, 0x7c, 0x5c, 0xbe, 0x3b, 0x42, 0x80, 0xbd,
        0x20, 0xa5, 0x6c, 0x3e, 0xd6, 0x4c, 0x64, 0x3e, 0xcb, 0x87, 0xb2, 0xbd,
        0xee, 0x86, 0xe1, 0x3d, 0x32, 0xce, 0x50, 0x3b, 0x23, 0x27, 0x29, 0x3e,
        0xa3, 0xe2, 0x01, 0xbe, 0x63, 0x05, 0xc9, 0x3d, 0x13, 0x87, 0x3b, 0xbe,
        0x96, 0x4c, 0x0f, 0xbe, 0x8b, 0xc8, 0x24, 0x3c, 0x1e, 0xa3, 0x38, 0x3e,
        0x77, 0x1b, 0x09, 0xbe, 0x02, 0x0c, 0x0c, 0x3c, 0x08, 0xda, 0x11, 0xbe,
        0xf7, 0x33, 0xa9, 0xbd, 0xb0, 0xec, 0x32, 0x3e, 0x56, 0xdb, 0x1c, 0x3d,
        0xe3, 0xc3, 0xe6, 0xbc, 0xb9, 0xb7, 0xa3, 0x3d, 0x32, 0x43, 0xf5, 0xbd,
        0x82, 0x89, 0x07, 0xbe, 0xfb, 0x98, 0x8c, 0x3e, 0x03, 0x12, 0xdd, 0xbd,
        0x83, 0x41, 0xaf, 0xbd, 0x48, 0xe0, 0x85, 0xbe, 0x6f, 0xd1, 0xed, 0xbc,
        0x8b, 0xd5, 0x88, 0x3d, 0x6d, 0xfa, 0x4d, 0x3e, 0xa1, 0x0c, 0x2d, 0xbb,
        0xd6, 0xe0, 0x54, 0x3e, 0x99, 0x8e, 0x17, 0xbe, 0xf7, 0xee, 0x98, 0xbe,
        0xc2, 0x40, 0xd8, 0xbd, 0x52, 0x9c, 0x39, 0xbc, 0xda, 0x0c, 0x00, 0x3e,
        0xc1, 0xf7, 0xd0, 0xbd, 0x42, 0x71, 0x0f, 0x3e, 0x4a, 0x18, 0x5b, 0x3e,
        0x41, 0xf5, 0xcc, 0xbd, 0xf1, 0x37, 0x2f, 0xbd, 0x6e, 0xb7, 0x7f, 0xbe,
        0x94, 0xfa, 0x25, 0x3d, 0xc2, 0xce, 0xdc, 0x3e, 0xd3, 0x42, 0x3b, 0x3e,
        0x1a, 0x7a, 0x93, 0x3e, 0x78, 0x29, 0x37, 0x3d, 0x1a, 0x09, 0x4e, 0xbe,
        0x97, 0x21, 0xf3, 0x3d, 0xf1, 0x16, 0x4f, 0xbe, 0x1e, 0x36, 0x3b, 0x3c,
        0x1b, 0xf3, 0xfc, 0x3d, 0x95, 0x85, 0x04, 0x3c, 0x0a, 0xca, 0x00, 0x3d,
        0x93, 0xe2, 0x1e, 0x3d, 0x7f, 0x11, 0x89, 0xbe, 0x5a, 0xac, 0x03, 0xbe,
        0x78, 0x2b, 0x27, 0xbe, 0x06, 0xf1, 0xc0, 0xbd, 0xa7, 0x11, 0xd3, 0x3c,
        0xda, 0xf2, 0x83, 0x3e, 0xed, 0x9a, 0xb7, 0xbd, 0xc0, 0xf3, 0xe2, 0xbd,
        0x90, 0xe3, 0x91, 0xbe, 0xaa, 0x7c, 0x74, 0x3b, 0x7a, 0xb9, 0x95, 0xbc,
        0x1b, 0x7f, 0xdd, 0x3a, 0xe8, 0x83, 0x04, 0x3d, 0x60, 0x79, 0xcb, 0xbc,
        0xa5, 0x76, 0x8d, 0xbd, 0x04, 0xb0, 0x99, 0x3e, 0x5b, 0xae, 0x35, 0xbd,
        0x23, 0x61, 0xae, 0xbc, 0x04, 0x9e, 0xdf, 0xbd, 0x2e, 0x67, 0x2a, 0xbe,
        0x37, 0x19, 0x8d, 0x3e, 0x58, 0x9c, 0x5f, 0x3e, 0x0e, 0xbf, 0x27, 0xbd,
        0x3e, 0x8e, 0x21, 0x3e, 0xc7, 0x3c, 0x9d, 0xbd, 0xfa, 0x9b, 0xb7, 0x3d,
        0x55, 0x60, 0x05, 0xbe, 0x00, 0x2e, 0x84, 0x3d, 0xb6, 0xd9, 0x8a, 0xbd,
        0xfd, 0x12, 0x10, 0xbd, 0x09, 0x12, 0x9f, 0xba, 0x45, 0xee, 0x8d, 0x3e,
        0xaf, 0x3e, 0x25, 0xbe, 0x74, 0x62, 0x4a, 0xbe, 0x38, 0x30, 0x83, 0xbe,
        0xa0, 0x3b, 0x3c, 0xbd, 0x10, 0x96, 0x43, 0x3e, 0x6a, 0x95, 0x5c, 0x3e,
        0xe6, 0x85, 0x94, 0xbe, 0x44, 0x7e, 0xc8, 0xbd, 0xf9, 0xfe, 0x2e, 0xbe,
        0x9d, 0xf8, 0xa0, 0x3d, 0x8b, 0x2d, 0x9f, 0xbe, 0x3e, 0xfd, 0x6d, 0xbe,
        0xf5, 0xa2, 0xcf, 0xbc, 0x69, 0xa9, 0xa6, 0x3c, 0xe5, 0x3e, 0xe8, 0xbe,
        0x16, 0x0b, 0x31, 0x3f, 0x33, 0x61, 0x70, 0x3d, 0x56, 0x31, 0x25, 0x3e,
        0xef, 0x6e, 0x29, 0xbd, 0x05, 0x1d, 0xa1, 0xbe, 0x7d, 0x4a, 0x6e, 0xbe,
        0xf8, 0x83, 0x26, 0xbe, 0x0d, 0x4e, 0x96, 0xbc, 0xa8, 0xc7, 0x8b, 0xbe,
        0x55, 0x75, 0x2b, 0xbe, 0x45, 0x89, 0x27, 0xbf, 0x79, 0x45, 0x46, 0x3b,
        0xbb, 0x4d, 0x79, 0xbd, 0xed, 0xef, 0x72, 0x3c, 0xa2, 0x7f, 0x44, 0x3e,
        0xeb, 0xd1, 0xb9, 0xbe, 0x51, 0x03, 0x28, 0x3f, 0x5d, 0x12, 0x2f, 0x3b,
        0xda, 0x00, 0xba, 0x3e, 0xd4, 0x2f, 0xc1, 0x3c, 0x2f, 0xfc, 0x5f, 0x3e,
        0x64, 0x49, 0xca, 0xbd, 0xdc, 0x4a, 0x5e, 0xbe, 0x95, 0x7c, 0xb7, 0x3d,
        0x02, 0x22, 0x70, 0xbe, 0xdf, 0x57, 0x0c, 0xbe, 0xdf, 0x59, 0x13, 0xbe,
        0x1f, 0xa2, 0x02, 0xbf, 0x91, 0xe3, 0x08, 0xbe, 0xb7, 0x05, 0x3d, 0xbe,
        0x0b, 0x8b, 0x5e, 0x3e, 0x5d, 0x59, 0xc0, 0xbe, 0xaf, 0xef, 0x20, 0x3f,
        0x73, 0xa3, 0xf8, 0x3d, 0x02, 0x4c, 0xa0, 0x3e, 0xea, 0xfc, 0xc6, 0x3c,
        0x43, 0xef, 0x96, 0x3e, 0xf8, 0x35, 0xb2, 0x3c, 0x50, 0x16, 0x97, 0xbe,
        0x82, 0x4b, 0x84, 0x3d, 0x6d, 0x9e, 0x19, 0xbe, 0xb7, 0x91, 0x24, 0xbe,
        0x0e, 0xc5, 0x50, 0xbe, 0xf3, 0x02, 0x55, 0xbe, 0xa8, 0x89, 0x23, 0xbe,
        0xdb, 0x4e, 0x1e, 0xbe, 0x13, 0x60, 0x26, 0x3e, 0xb4, 0xd2, 0xd9, 0xbe,
        0xac, 0x97, 0x0a, 0x3f, 0x36, 0xc4, 0xe6, 0x3d, 0x34, 0x8d, 0x95, 0x3d,
        0xe7, 0x92, 0x1e, 0xbd, 0x9b, 0xe5, 0x9a, 0x3e, 0x36, 0xd6, 0xbe, 0xbe,
        0xde, 0x22, 0x8f, 0xbe, 0x5f, 0xab, 0xc4, 0x3d, 0x72, 0x27, 0x0a, 0xbe,
        0x63, 0xab, 0xc9, 0xbd, 0xf5, 0x7c, 0x3f, 0xbe, 0xb3, 0x3a, 0xd6, 0xbd,
        0x95, 0x72, 0x33, 0xbe, 0xc8, 0x45, 0xa3, 0x3d, 0xf7, 0x0e, 0xc1, 0x3d,
        0x37, 0x5e, 0xb7, 0xbe, 0x56, 0xbb, 0x1d, 0x3f, 0xf5, 0x88, 0x5e, 0x3e,
        0xed, 0xbb, 0x24, 0x3e, 0x46, 0x6a, 0xd3, 0xbc, 0xb9, 0x94, 0xa9, 0xbd,
        0x4c, 0xe7, 0x11, 0xbe, 0xd0, 0x19, 0x93, 0xbe, 0xae, 0xc7, 0x28, 0xbd,
        0x1e, 0xe7, 0x63, 0xbe, 0xc8, 0x89, 0x02, 0x3e, 0x91, 0x89, 0x83, 0xbe,
        0xfa, 0x91, 0x69, 0xbe, 0xaa, 0x59, 0xe8, 0xbc, 0x7d, 0x93, 0x8a, 0x3e,
        0xf7, 0x9e, 0xbe, 0x3d, 0x56, 0xa4, 0xb4, 0xbe, 0xac, 0x08, 0xe5, 0x3e,
        0xcf, 0x0b, 0xe4, 0xbc, 0x46, 0xe5, 0x42, 0x3e, 0x98, 0x37, 0xbe, 0xbd,
        0x33, 0x47, 0xbe, 0x3d, 0xb5, 0x00, 0x87, 0xbe, 0x7e, 0x15, 0x5d, 0xbe,
        0x72, 0x0d, 0x11, 0xbe, 0x1c, 0xb4, 0x25, 0xbe, 0x27, 0xcb, 0xae, 0xbc,
        0xc8, 0x97, 0xc7, 0xbe, 0x70, 0xd4, 0x9f, 0x3d, 0x21, 0x82, 0x90, 0x3d,
        0x02, 0x48, 0xa7, 0x3e, 0xab, 0xb7, 0x9d, 0x3d, 0x62, 0x68, 0xad, 0xbe,
        0x3f, 0x64, 0xd0, 0x3e, 0x00, 0xc8, 0x88, 0x3d, 0xf1, 0xea, 0xed, 0x3e,
        0xb6, 0xcc, 0x11, 0xbe, 0xf6, 0x81, 0xc6, 0x3d, 0x56, 0xe4, 0x08, 0xbe,
        0x8c, 0xc8, 0x37, 0xbd, 0xe1, 0xd3, 0xcd, 0xbd, 0x86, 0x2f, 0xcd, 0xbd,
        0xf3, 0xc6, 0xa0, 0xba, 0x69, 0xec, 0x0c, 0xbe, 0x93, 0x39, 0x96, 0xbe,
        0xfd, 0xdb, 0x96, 0x3d, 0x9c, 0xd1, 0x8c, 0x3e, 0x93, 0x93, 0x92, 0x3c,
        0x70, 0x2a, 0x8a, 0xbe, 0xc5, 0x00, 0x12, 0x3f, 0xe2, 0x4b, 0xae, 0x3d,
        0xab, 0x4e, 0x5e, 0x3e, 0xe0, 0x5b, 0xbd, 0xbd, 0x70, 0x63, 0x1b, 0x3e,
        0x14, 0x3c, 0xd3, 0x3c, 0xfe, 0x9a, 0x86, 0x3a, 0x10, 0x36, 0x6c, 0xbe,
        0x41, 0x20, 0x9b, 0xbd, 0x3a, 0x4b, 0xd4, 0x3d, 0x72, 0x07, 0xcc, 0xbe,
        0xd4, 0xf5, 0xa9, 0xbd, 0x81, 0x16, 0x8f, 0xbb, 0xfc, 0xb2, 0x33, 0x3e,
        0x5a, 0xb1, 0x14, 0xbd, 0x9c, 0xb0, 0xbb, 0xbe, 0xb3, 0x4a, 0x44, 0x3f,
        0x13, 0xf4, 0xbe, 0x3d, 0x2f, 0x8b, 0xf3, 0x3c, 0x79, 0x90, 0xc6, 0xbd,
        0x27, 0x28, 0x82, 0x3e, 0x7d, 0xdc, 0x98, 0xbe, 0x19, 0x35, 0x0b, 0x3e,
        0x86, 0x91, 0x7d, 0xbe, 0xfa, 0x65, 0x69, 0x3c, 0x17, 0x3f, 0x92, 0x3d,
        0x7f, 0xe3, 0x6f, 0xbd, 0x16, 0xeb, 0xa7, 0x3d, 0x25, 0x6e, 0x48, 0x3c,
        0xde, 0x1e, 0xcf, 0x3d, 0xb8, 0x1d, 0xc1, 0x3d, 0xaa, 0x90, 0xad, 0xbe,
        0x3c, 0xdc, 0xf3, 0x3e, 0xd6, 0x37, 0xc3, 0x3d, 0xf7, 0x51, 0xad, 0x3e,
        0xcd, 0x02, 0x79, 0xbd, 0x5e, 0xca, 0x43, 0x3e, 0xf7, 0xb5, 0x2c, 0xbd,
        0xa6, 0x3a, 0xee, 0x3d, 0x85, 0x86, 0x9b, 0xbe, 0x92, 0x00, 0x8a, 0xbc,
        0x28, 0x2e, 0x0c, 0x3e, 0x36, 0x32, 0x50, 0xbd, 0x5f, 0xa5, 0xa5, 0xbe,
        0xf9, 0xe1, 0x97, 0x3d, 0xaa, 0x6d, 0x1a, 0x3e, 0xa6, 0x3e, 0x4b, 0x3d,
        0x45, 0xe5, 0xd9, 0xbe, 0xcc, 0xbd, 0xe1, 0x3e, 0xf0, 0x07, 0x9b, 0x3d,
        0xa7, 0x08, 0xc8, 0x3e, 0x51, 0xfb, 0xa4, 0xbd, 0xb8, 0x60, 0x15, 0x3e,
        0x37, 0x3e, 0x1e, 0xbe, 0xf0, 0x30, 0xb4, 0x3b, 0x55, 0x54, 0xa7, 0xbe,
        0x61, 0xb5, 0x29, 0xbd, 0xea, 0x63, 0x04, 0x3e, 0xcb, 0x67, 0x03, 0xbe,
        0x61, 0xb4, 0xaf, 0xbe, 0x35, 0x80, 0x37, 0x3d, 0x34, 0xa9, 0x86, 0x3e,
        0xd0, 0xde, 0x5d, 0x3d, 0xf8, 0xdc, 0x8e, 0xbe, 0xda, 0xff, 0x00, 0x3f,
        0x86, 0x4e, 0x45, 0x3e, 0x1e, 0x22, 0xdb, 0x3e, 0x8d, 0xa8, 0x2f, 0xbd,
        0xfc, 0x10, 0xb4, 0x3e, 0xa8, 0xb5, 0xdf, 0xbd, 0xea, 0x80, 0xd7, 0x3d,
        0x53, 0x81, 0x65, 0xbe, 0xd8, 0xa4, 0xeb, 0xbb, 0x12, 0x90, 0xa2, 0x3e,
        0x1e, 0xae, 0x7e, 0xbd, 0x48, 0x75, 0x4c, 0xbe, 0xd8, 0xc1, 0x0c, 0x3e,
        0x9e, 0x08, 0x6b, 0x3e, 0x76, 0x15, 0x6d, 0x3d, 0xfc, 0x38, 0x8d, 0xbe,
        0x38, 0xf0, 0xbf, 0x3e, 0xcb, 0xb4, 0x02, 0x3d, 0xe5, 0x1c, 0xc2, 0x3d,
        0xec, 0x4c, 0x50, 0xbc, 0xee, 0x2b, 0x8d, 0x3e, 0xa5, 0x30, 0x65, 0xbe,
        0xcd, 0x43, 0x09, 0x3d, 0x98, 0x67, 0xfa, 0xbd, 0x23, 0xb0, 0x45, 0xbd,
        0xa3, 0x9e, 0xd3, 0x3e, 0xe8, 0x3b, 0xc6, 0xbd, 0x39, 0xd3, 0x02, 0x3d,
        0x75, 0xaf, 0xf4, 0x3d, 0xa2, 0x65, 0xa4, 0x3e, 0xf5, 0x6a, 0xe7, 0xbd,
        0x71, 0x8f, 0x1a, 0xbe, 0x15, 0xc7, 0x60, 0x3e, 0xb5, 0xab, 0x49, 0xbd,
        0xa4, 0xbd, 0x11, 0x3e, 0x76, 0xee, 0x86, 0x3d, 0xe6, 0xf7, 0x67, 0x3e,
        0xaa, 0x63, 0x88, 0x3c, 0x8f, 0x57, 0x9d, 0x3c, 0x19, 0xde, 0x3e, 0xbe,
        0x87, 0x87, 0xd5, 0x3d, 0x31, 0xcd, 0xe4, 0x3e, 0x56, 0x22, 0x09, 0x3d,
        0x10, 0x41, 0x12, 0x3d, 0x59, 0xd6, 0x03, 0x3f, 0xb9, 0xd1, 0x7a, 0xbe,
        0xe0, 0x09, 0x8b, 0xbd, 0x1f, 0x23, 0x9f, 0x3e, 0xbf, 0x60, 0xc8, 0xbe,
        0xe9, 0x1d, 0x80, 0xbd, 0x04, 0x21, 0x9a, 0xbd, 0x0a, 0x46, 0xd4, 0x3d,
        0x99, 0xfd, 0xb2, 0xbc, 0x2a, 0xe6, 0x04, 0x3e, 0x88, 0xe7, 0xe1, 0xbe,
        0xf6, 0x9f, 0x04, 0x3e, 0x3e, 0xb7, 0xff, 0xbe, 0x5d, 0x55, 0x4f, 0x3e,
        0xda, 0xfa, 0xdf, 0x3e, 0xf9, 0x2b, 0x0f, 0x3e, 0x2e, 0x66, 0x5f, 0xbe,
        0x1c, 0xcd, 0xa2, 0xbe, 0x73, 0x85, 0xb2, 0xbd, 0x29, 0x62, 0x94, 0xbc,
        0x5e, 0x59, 0x2d, 0xbe, 0x91, 0xb5, 0x5c, 0x3d, 0x4b, 0x14, 0x3a, 0xbe,
        0xed, 0xca, 0xad, 0x3d, 0x91, 0x9f, 0x81, 0xbe, 0x9f, 0x33, 0xe9, 0x3b,
        0x8a, 0x4e, 0x38, 0xbe, 0x70, 0x15, 0x89, 0x3d, 0xcd, 0x92, 0x0d, 0xbe,
        0x6f, 0x7a, 0x94, 0xbd, 0xda, 0x1b, 0x2d, 0x3e, 0x82, 0x11, 0xd4, 0x3e,
        0x3d, 0xcb, 0x87, 0xbe, 0x80, 0x3a, 0x5b, 0xbe, 0xbd, 0x81, 0xbc, 0xbd,
        0x2c, 0x72, 0xe3, 0x3d, 0x3b, 0x0d, 0x74, 0xbe, 0xc7, 0xfa, 0x75, 0xbd,
        0x88, 0xa2, 0x82, 0xbe, 0xf8, 0xcf, 0x82, 0xbd, 0x44, 0x82, 0x90, 0xbe,
        0xf0, 0x33, 0x9a, 0x3c, 0x78, 0xb7, 0x8e, 0x3d, 0x86, 0xaf, 0x93, 0x3d,
        0x55, 0xbe, 0x2c, 0x3c, 0x25, 0x2e, 0x98, 0x3e, 0xc9, 0x92, 0x4d, 0x3e,
        0x25, 0xfc, 0xe5, 0x3d, 0x44, 0xf0, 0x14, 0xbe, 0xd1, 0xd8, 0x60, 0x3d,
        0x1b, 0x82, 0x8c, 0xbd, 0x45, 0x53, 0x8d, 0x3e, 0x0c, 0x18, 0x82, 0x3c,
        0x46, 0xe2, 0x4a, 0xbe, 0x84, 0xc3, 0x57, 0x3e, 0x1f, 0xf7, 0xa3, 0xbd,
        0x81, 0x2c, 0x58, 0xbe, 0x34, 0xa4, 0x29, 0x3e, 0x6d, 0xd5, 0x9a, 0xbc,
        0xff, 0xec, 0xad, 0xbc, 0x22, 0x21, 0xe6, 0x3d, 0x28, 0x18, 0x69, 0x3e,
        0x37, 0x83, 0x99, 0x3e, 0x58, 0x9b, 0xae, 0x3a, 0x6f, 0x96, 0xc7, 0x3c,
        0x01, 0xef, 0xf6, 0x3d, 0xae, 0x55, 0xbd, 0xbd, 0xb9, 0xd0, 0x3a, 0x3e,
        0x1c, 0x90, 0x2c, 0x3e, 0x78, 0xb8, 0x78, 0xbd, 0x54, 0x50, 0xfb, 0x3c,
        0x9c, 0x95, 0x2a, 0xbd, 0xba, 0x08, 0x5f, 0x3d, 0xc5, 0x4b, 0x69, 0x3e,
        0x89, 0x8a, 0x06, 0x3e, 0x93, 0x79, 0x0a, 0xbc, 0xc2, 0xf5, 0xa3, 0x3d,
        0xa7, 0x53, 0xbe, 0x3e, 0x7b, 0x4f, 0xd2, 0x3e, 0x0e, 0xaf, 0xec, 0x3d,
        0x9d, 0x42, 0x0b, 0xbd, 0xbc, 0x3d, 0xd3, 0x3d, 0x5c, 0xf1, 0xd2, 0xbd,
        0x4d, 0x67, 0xc1, 0x3d, 0xc1, 0xf0, 0x5b, 0x3d, 0xc4, 0xfd, 0x14, 0x3e,
        0x9a, 0xd2, 0xa9, 0xbc, 0xa4, 0x98, 0xf9, 0xbd, 0xb9, 0x5e, 0xf9, 0xbd,
        0x27, 0x44, 0x88, 0x3e, 0x69, 0x01, 0x04, 0xbe, 0x68, 0x7d, 0xe6, 0xbd,
        0x06, 0xb1, 0x86, 0xbe, 0x12, 0x22, 0x66, 0xbe, 0xf5, 0xe3, 0xc9, 0x3e,
        0x7f, 0x41, 0x44, 0xbb, 0x1f, 0x9e, 0xbd, 0xbe, 0x2e, 0xe6, 0x3b, 0xbd,
        0x27, 0x37, 0xb3, 0xbd, 0xba, 0x89, 0x2a, 0x3e, 0x33, 0x00, 0xd5, 0x3a,
        0x12, 0x46, 0x1c, 0x3e, 0x11, 0xc0, 0xa2, 0x3d, 0xc5, 0x8b, 0x9a, 0xbd,
        0xea, 0x3e, 0xd2, 0xbe, 0x3d, 0x9c, 0xa7, 0x3e, 0x03, 0x50, 0xb5, 0xbe,
        0x2f, 0x3a, 0xd0, 0x3d, 0xea, 0xe8, 0xa3, 0xbe, 0x29, 0x40, 0x1f, 0xbe,
        0x0e, 0x16, 0xac, 0x3e, 0x44, 0x8d, 0xb4, 0x3d, 0x58, 0xe6, 0x96, 0xbe,
        0xbc, 0x28, 0x81, 0xbd, 0x6a, 0xf5, 0x0f, 0xbd, 0xfc, 0xb7, 0x10, 0x3e,
        0x5b, 0xdd, 0x5c, 0x3e, 0x6b, 0x4a, 0x1e, 0x3e, 0x40, 0xac, 0xe4, 0xbd,
        0x38, 0xe9, 0x08, 0xbd, 0x30, 0x1a, 0x87, 0xbe, 0xf4, 0x72, 0x20, 0x3e,
        0x73, 0x01, 0x39, 0xbe, 0xa6, 0xe1, 0x75, 0x3e, 0x6e, 0x67, 0x7e, 0xbc,
        0x27, 0x69, 0x05, 0xbe, 0xe8, 0x8a, 0x12, 0x3f, 0xe9, 0x73, 0x48, 0x3d,
        0x0d, 0x4c, 0x4f, 0xbe, 0x33, 0xa1, 0x32, 0xbd, 0xfe, 0x97, 0x82, 0xbd,
        0x35, 0xf0, 0x9b, 0x3d, 0x3a, 0x95, 0x14, 0x3d, 0x21, 0xba, 0xfb, 0x3d,
        0x5e, 0xfc, 0x9f, 0x38, 0x33, 0xfd, 0xfb, 0xbc, 0x9e, 0x83, 0x79, 0xbe,
        0x38, 0x8e, 0x90, 0x3e, 0xa7, 0xf5, 0xee, 0xbd, 0xf5, 0x1a, 0x5d, 0x3e,
        0x0e, 0xf0, 0x14, 0xbe, 0x5a, 0x84, 0x11, 0xbf, 0xaa, 0x87, 0xcb, 0x3e,
        0x34, 0xb1, 0xb6, 0x3d, 0xe0, 0x9c, 0x9c, 0xbe, 0xe5, 0x52, 0x9a, 0xbe,
        0xc5, 0xc5, 0x33, 0xbd, 0xba, 0x2f, 0x80, 0x3d, 0x68, 0x88, 0x9e, 0x3e,
        0x83, 0x4c, 0x4a, 0x3e, 0x28, 0x6f, 0x9f, 0x3c, 0x52, 0x48, 0x3f, 0xbe,
        0xa7, 0x54, 0xd4, 0x3d, 0xdf, 0x61, 0x1d, 0x3e, 0x4f, 0x08, 0xc6, 0xbd,
        0xca, 0x95, 0x8e, 0x3e, 0xfc, 0x02, 0xa8, 0x3d, 0x6d, 0x32, 0xad, 0xbe,
        0x18, 0x65, 0x01, 0x3e, 0x31, 0x2f, 0x62, 0x3d, 0xeb, 0x64, 0x61, 0xbe,
        0x93, 0x5f, 0xcd, 0xbe, 0x08, 0xe9, 0xfd, 0xbc, 0x41, 0x48, 0xf2, 0x3d,
        0x23, 0x9e, 0xa4, 0x3e, 0x6e, 0xa2, 0xa8, 0x3e, 0x84, 0xb6, 0x84, 0xbd,
        0xaa, 0x54, 0x3f, 0xbe, 0x3f, 0x8d, 0xc9, 0x3c, 0x1c, 0xd9, 0xb3, 0x3e,
        0x64, 0x64, 0x81, 0x3c, 0x12, 0x2d, 0x44, 0x3d, 0xb4, 0x6b, 0xa7, 0xbb,
        0x3d, 0x8f, 0x90, 0xbe, 0x61, 0x98, 0x34, 0x3e, 0x1d, 0x16, 0xb0, 0x3c,
        0x53, 0xae, 0x31, 0xbe, 0x6f, 0xe5, 0x6f, 0xbe, 0x6c, 0x2e, 0x8e, 0x3d,
        0xaa, 0x3b, 0xeb, 0xbc, 0x1d, 0x42, 0x4c, 0x3e, 0x35, 0xd9, 0x9d, 0x3c,
        0x46, 0x1b, 0xbf, 0xbc, 0xa5, 0xde, 0x5a, 0xbe, 0x41, 0x61, 0x74, 0xbe,
        0x7d, 0x2e, 0x51, 0x3e, 0xbf, 0x0a, 0x3c, 0x3e, 0xe4, 0xd7, 0x50, 0x3e,
        0x9b, 0x28, 0xa5, 0x3d, 0x04, 0xbd, 0x23, 0xbd, 0xd0, 0x65, 0x28, 0xbd,
        0xe8, 0x90, 0x93, 0x3e, 0xed, 0xcc, 0xa9, 0xbd, 0x56, 0x6b, 0x89, 0xbe,
        0xc4, 0xe1, 0x1f, 0xbc, 0x5d, 0x61, 0x00, 0x3d, 0x6c, 0x05, 0x80, 0x3e,
        0xa5, 0x74, 0x30, 0x3c, 0x30, 0x27, 0xff, 0x3d, 0x41, 0x09, 0xa5, 0xbe,
        0x55, 0x6b, 0x00, 0xbe, 0x0c, 0xf4, 0x99, 0x3e, 0xf5, 0x15, 0x9c, 0x3e,
        0xf4, 0x7f, 0x8a, 0x3e, 0xd3, 0x28, 0xe2, 0xbc, 0xce, 0xc1, 0xbf, 0x3d,
        0x3f, 0x16, 0x32, 0xbe, 0x33, 0x16, 0x11, 0xbe, 0x38, 0xe3, 0x96, 0xbd,
        0x3a, 0x1e, 0x83, 0xbe, 0x7c, 0xf4, 0xa2, 0x3d, 0x46, 0xb9, 0xd4, 0x3c,
        0x47, 0x82, 0x87, 0x3e, 0x5d, 0xc4, 0xe1, 0xbe, 0xfe, 0x50, 0xb4, 0xbc,
        0x4a, 0x06, 0xf0, 0xbe, 0x46, 0x3f, 0x59, 0xbe, 0x48, 0x45, 0x6f, 0x3d,
        0xdb, 0x7d, 0x36, 0x3e, 0x8b, 0x76, 0xbd, 0x3c, 0x74, 0xd6, 0x10, 0xbd,
        0x2b, 0xf4, 0xe5, 0x3e, 0x69, 0xe7, 0x22, 0xbe, 0x2f, 0xb7, 0x98, 0xbe,
        0x7e, 0x6a, 0xb2, 0xbd, 0x0b, 0x36, 0x49, 0xbd, 0xf2, 0xcd, 0x0f, 0xbe,
        0x9c, 0xf6, 0x85, 0xbd, 0x1d, 0xbd, 0x33, 0xbd, 0x0e, 0x24, 0x95, 0xbd,
        0x2b, 0x82, 0x86, 0xbd, 0x70, 0x42, 0xa9, 0xbe, 0xf9, 0x8c, 0x2f, 0xbe,
        0x63, 0x16, 0x5b, 0x3d, 0xea, 0x02, 0xdf, 0xbd, 0x07, 0xc5, 0x23, 0xbe,
        0x7b, 0x81, 0x3d, 0x3c, 0xcd, 0x3c, 0xc1, 0xbd, 0xef, 0x37, 0x21, 0xbd,
        0xd8, 0xb3, 0x07, 0x3d, 0xf7, 0xa1, 0xcd, 0x3d, 0x46, 0x82, 0x82, 0xbd,
        0xbb, 0xcb, 0xdd, 0xbd, 0xa3, 0xa5, 0x8b, 0xbd, 0xee, 0x01, 0xab, 0x3d,
        0xb5, 0xfa, 0x67, 0xbd, 0x79, 0xaf, 0x04, 0x3d, 0x24, 0xe7, 0x92, 0xbd,
        0xc9, 0xc8, 0xac, 0xbd, 0x07, 0x9f, 0xe6, 0xbc, 0x52, 0x75, 0x99, 0x3d,
        0x97, 0x4c, 0x80, 0xbe, 0x40, 0xd8, 0xf3, 0x3c, 0x48, 0xf7, 0xf5, 0xbd,
        0xd4, 0x11, 0xe3, 0x3d, 0x8d, 0xb5, 0xdf, 0xbd, 0x2c, 0x65, 0xcd, 0xbd,
        0x75, 0x1b, 0x5d, 0xbe, 0xe2, 0xdc, 0x13, 0xbe, 0x05, 0x64, 0x50, 0xbd,
        0x14, 0x7d, 0x3c, 0xbd, 0xa8, 0xd2, 0x12, 0xbe, 0x28, 0xe1, 0xb9, 0x3d,
        0xfe, 0xe2, 0x45, 0xbe, 0x59, 0x1a, 0x25, 0xbe, 0x01, 0x6b, 0x01, 0x3d,
        0x1b, 0xa2, 0x17, 0xbe, 0xf6, 0x61, 0x9b, 0xbd, 0xdf, 0x01, 0xd2, 0xbd,
        0x51, 0x54, 0xcf, 0xbd, 0x04, 0xba, 0xdc, 0x3d, 0x78, 0x31, 0x10, 0xbe,
        0xd3, 0x9d, 0x9a, 0xbd, 0x65, 0x26, 0xe8, 0xbd, 0x60, 0x43, 0x79, 0xbc,
        0x35, 0xfe, 0x41, 0xbe, 0x86, 0xf0, 0xe7, 0xba, 0x65, 0x72, 0x6a, 0x3d,
        0xf8, 0x4e, 0xa7, 0x3d, 0xff, 0xe9, 0x64, 0xbc, 0xa4, 0x82, 0x43, 0x3d,
        0xfc, 0x5f, 0x91, 0x3d, 0xad, 0x53, 0xd5, 0x3d, 0x5c, 0x53, 0x8e, 0xbe,
        0x08, 0x11, 0x92, 0x3d, 0xb5, 0xbb, 0x9e, 0xbc, 0x46, 0xf8, 0x1a, 0xbe,
        0x3d, 0xa7, 0x91, 0x3d, 0x00, 0x48, 0xba, 0xbd, 0xcf, 0x5c, 0x91, 0xbd,
        0x2c, 0x6c, 0x95, 0xbd, 0x9b, 0x5d, 0x1c, 0x3e, 0x7d, 0x2e, 0x9b, 0xbd,
        0x20, 0xad, 0x4d, 0xbe, 0x0f, 0xc2, 0x9e, 0xbd, 0x9e, 0x87, 0x9d, 0xbd,
        0x6f, 0xdf, 0x8c, 0x3d, 0xd1, 0xf2, 0x38, 0xbb, 0x41, 0x26, 0xb8, 0xbd,
        0x22, 0xc0, 0xdf, 0xbd, 0xf1, 0x10, 0xf2, 0xbd, 0x55, 0x60, 0xff, 0xbd,
        0x3c, 0x5c, 0x34, 0x3d, 0xf7, 0xd0, 0x1c, 0xbe, 0xd4, 0xb5, 0xcb, 0xbd,
        0xf0, 0xa2, 0xed, 0xbd, 0x3d, 0xdc, 0x3c, 0xbe, 0xf3, 0x4e, 0xb9, 0xbd,
        0xaf, 0x9a, 0xcf, 0xbd, 0xe7, 0x32, 0xa1, 0xbd, 0x7b, 0x8c, 0xfc, 0x3d,
        0x69, 0x3d, 0x11, 0xbe, 0xbd, 0x91, 0xe7, 0x3c, 0x6a, 0x74, 0x18, 0xbc,
        0xb3, 0xcd, 0x2b, 0xbe, 0xaf, 0xf4, 0x9b, 0x3d, 0xd3, 0xd6, 0xd3, 0x3d,
        0x7d, 0x6f, 0xc5, 0x3d, 0xdc, 0xbf, 0xb4, 0x3c, 0x20, 0xe0, 0xb7, 0xbd,
        0x31, 0xec, 0xda, 0xbd, 0xd1, 0x91, 0x0b, 0xbe, 0xa0, 0xa8, 0xa0, 0xbd,
        0x25, 0x49, 0x90, 0x3d, 0xb8, 0x5e, 0xa1, 0x3d, 0xc8, 0xae, 0xcd, 0xbd,
        0x06, 0xe1, 0xb7, 0x3c, 0xd8, 0x84, 0x4f, 0xbd, 0x19, 0x67, 0x58, 0x3c,
        0xc2, 0x54, 0x01, 0x3e, 0xb2, 0x14, 0xba, 0xbd, 0xd4, 0xed, 0x48, 0x3d,
        0x82, 0x8f, 0xa7, 0xbd, 0x0a, 0x95, 0x4a, 0x3e, 0x11, 0xce, 0xd8, 0xbd,
        0xa4, 0x6f, 0x45, 0xbd, 0x83, 0x3b, 0xb0, 0xbd, 0x64, 0x55, 0xf0, 0xbd,
        0xe7, 0x6d, 0x8f, 0xbe, 0xa7, 0x94, 0xd4, 0xbd, 0x07, 0x44, 0x90, 0xbd,
        0x67, 0x81, 0x8a, 0xbd, 0x38, 0xcc, 0x82, 0xbd, 0xf5, 0x1d, 0xa8, 0xbd,
        0x7a, 0x64, 0x23, 0xbe, 0x6a, 0xd0, 0x3c, 0xbc, 0xff, 0xb2, 0x68, 0x3d,
        0x5e, 0xa6, 0xda, 0x3a, 0xc9, 0x1e, 0x61, 0x3d, 0x13, 0x2b, 0x35, 0x3e,
        0xff, 0xee, 0x91, 0x3c, 0x77, 0x1c, 0x6c, 0xbd, 0x3a, 0x7a, 0x91, 0x3d,
        0xca, 0xed, 0x9a, 0x3d, 0x93, 0x69, 0xfb, 0xbd, 0x4c, 0x85, 0x29, 0xbe,
        0x36, 0x39, 0xad, 0x3d, 0x31, 0x66, 0x04, 0xbe, 0xea, 0x26, 0x9f, 0xbc,
        0xbe, 0x52, 0x7b, 0xbe, 0xf0, 0xb9, 0x67, 0xbe, 0xdf, 0x56, 0xa1, 0x3d,
        0xd5, 0x49, 0x1a, 0x3e, 0x91, 0xb7, 0xf3, 0x3d, 0x09, 0xce, 0x67, 0xbe,
        0xde, 0x9e, 0x42, 0xbd, 0x1f, 0xbe, 0x0b, 0x3e, 0xf4, 0x78, 0x9a, 0xbd,
        0x34, 0xc4, 0x32, 0x3e, 0xd3, 0xd0, 0x82, 0x3d, 0xf3, 0x1b, 0x85, 0xbe,
        0x02, 0xbd, 0xee, 0xbc, 0xbb, 0x33, 0xe6, 0x3d, 0x45, 0xf8, 0x04, 0xbe,
        0xb5, 0x6d, 0x66, 0x3d, 0x07, 0x5c, 0x05, 0xbe, 0xb3, 0x2b, 0x42, 0x3d,
        0x9a, 0x8f, 0xdc, 0xbd, 0xc4, 0x9b, 0x9b, 0xbd, 0xec, 0xe9, 0x24, 0xbe,
        0x66, 0x68, 0x3c, 0xbe, 0x68, 0xd0, 0xbb, 0x3d, 0x72, 0xe3, 0x95, 0xbd,
        0x76, 0xda, 0x4d, 0xbe, 0x2c, 0x3f, 0x48, 0x3c, 0xee, 0xea, 0xc7, 0x3d,
        0x34, 0x02, 0x32, 0xbe, 0xdf, 0xb6, 0xaa, 0xbc, 0xa5, 0x62, 0x31, 0xbe,
        0xf4, 0x35, 0xb7, 0x3d, 0xc0, 0xab, 0xcc, 0x3d, 0xdd, 0x8e, 0x44, 0xbd,
        0xed, 0xcb, 0x86, 0xbe, 0xae, 0x14, 0x35, 0xbe, 0x94, 0xc1, 0x27, 0xbe,
        0x73, 0x6e, 0x69, 0xbd, 0x00, 0xcd, 0x9c, 0xbd, 0x19, 0x87, 0x29, 0x3e,
        0x68, 0x8c, 0xe9, 0xbd, 0xb8, 0x4a, 0xf6, 0xbc, 0xa2, 0xc9, 0x64, 0x3d,
        0x7e, 0x1b, 0x73, 0x3d, 0xbe, 0x9c, 0x53, 0xbe, 0xa4, 0x88, 0x29, 0xbd,
        0x8f, 0x1d, 0x08, 0xbe, 0xe0, 0x4f, 0x16, 0xbe, 0xcd, 0x46, 0x27, 0xbd,
        0x2d, 0x71, 0x1d, 0xbe, 0x32, 0x49, 0x06, 0xbd, 0x64, 0x9f, 0xef, 0xbd,
        0x5a, 0xb7, 0xb8, 0x3c, 0x3e, 0x68, 0x9e, 0x3c, 0x07, 0x37, 0x37, 0xbd,
        0xaa, 0x89, 0x7b, 0xbd, 0xbf, 0x78, 0x19, 0xbe, 0x73, 0xa1, 0x82, 0xbe,
        0xa1, 0x02, 0xa6, 0xbc, 0x32, 0xea, 0x0a, 0xbd, 0x23, 0x73, 0x78, 0xbe,
        0x74, 0x7b, 0x6f, 0x3d, 0x5a, 0x5b, 0x5c, 0xbd, 0xf5, 0x25, 0x66, 0xbd,
        0xb7, 0x76, 0xb7, 0x3c, 0x53, 0x91, 0xb3, 0xbd, 0x6a, 0xd6, 0xc6, 0xbd,
        0xfc, 0x01, 0x44, 0x3d, 0xc3, 0xdb, 0x29, 0xbd, 0xfe, 0x95, 0x06, 0xbc,
        0xd2, 0x1b, 0x37, 0x3d, 0x55, 0x32, 0xdb, 0x39, 0x4a, 0xfe, 0x1c, 0xbe,
        0xa8, 0xe1, 0xe5, 0xbd, 0x60, 0xfd, 0x88, 0xbd, 0x25, 0x84, 0xb2, 0xbd,
        0xec, 0x12, 0x97, 0xbe, 0xed, 0x3b, 0xe9, 0xbd, 0x00, 0xd1, 0x02, 0xbd,
        0x7b, 0xba, 0xf7, 0xbc, 0x57, 0x64, 0xd0, 0xbd, 0x94, 0xab, 0x39, 0xbd,
        0x7c, 0x83, 0x87, 0x3d, 0x4f, 0x4c, 0xa1, 0xbd, 0x56, 0xd2, 0x82, 0xbd,
        0x58, 0x0c, 0x22, 0xbe, 0x8f, 0x97, 0x10, 0xbe, 0xeb, 0xfb, 0x0e, 0x3d,
        0x13, 0x4f, 0xb2, 0xbd, 0x63, 0x78, 0xa9, 0xbd, 0x2e, 0x26, 0x83, 0xbc,
        0x4f, 0x7b, 0x80, 0xbd, 0x3c, 0x1e, 0x51, 0xbd, 0xbb, 0x10, 0x22, 0x3a,
        0x88, 0x86, 0xc5, 0xbd, 0x85, 0x08, 0x1c, 0x3d, 0xf8, 0x93, 0xd7, 0x3d,
        0xd6, 0xce, 0x42, 0xbe, 0xc8, 0xd9, 0xdb, 0xbd, 0xde, 0xf5, 0x12, 0x3d,
        0x1e, 0xf3, 0x09, 0xbd, 0x5a, 0x1a, 0x7f, 0x3d, 0x93, 0xa6, 0x20, 0x3c,
        0x2d, 0x80, 0x0f, 0x3d, 0x49, 0x15, 0x12, 0x3e, 0xde, 0x53, 0x80, 0x3d,
        0x28, 0x36, 0x1c, 0xba, 0x47, 0xc3, 0xa8, 0x3d, 0x97, 0xa4, 0x53, 0xbd,
        0x16, 0x1d, 0x26, 0xbe, 0x22, 0x31, 0xe1, 0x3c, 0x59, 0xe1, 0x5e, 0x3d,
        0x42, 0x4a, 0xca, 0x3d, 0x41, 0x92, 0x10, 0xbe, 0x55, 0x37, 0xff, 0xbd,
        0xf9, 0x18, 0x24, 0x3d, 0xca, 0x4f, 0x20, 0xbe, 0x4c, 0xbb, 0x34, 0xbe,
        0xc8, 0xc7, 0x23, 0xbd, 0xe1, 0xc9, 0x61, 0xbb, 0x3b, 0x4b, 0x31, 0xbe,
        0x80, 0x76, 0xb3, 0xbc, 0xa7, 0xe9, 0x53, 0xbe, 0xfa, 0x53, 0x50, 0xbd,
        0x26, 0xab, 0x17, 0xbd, 0x94, 0xdc, 0x05, 0xbd, 0xb7, 0xd1, 0xcd, 0xbc,
        0xc3, 0xf2, 0x21, 0xbe, 0xd8, 0xae, 0x1b, 0xbe, 0x0e, 0x11, 0x43, 0xbc,
        0x0d, 0x1e, 0xb9, 0xbd, 0x94, 0x0b, 0x91, 0x3d, 0x1f, 0x8f, 0x83, 0xbb,
        0xd0, 0xfa, 0x8b, 0x3d, 0xc8, 0x5e, 0xfc, 0xbd, 0x66, 0x19, 0xea, 0x3d,
        0xe7, 0x88, 0xb2, 0xbd, 0xdc, 0x31, 0xed, 0xbd, 0x0b, 0xf6, 0x73, 0xbd,
        0x71, 0xf3, 0x82, 0x3d, 0xb5, 0xd4, 0x97, 0x3b, 0x8b, 0x12, 0xa1, 0xbd,
        0x96, 0x1b, 0x0b, 0x3e, 0x9d, 0x87, 0x3b, 0x3c, 0x22, 0x83, 0x27, 0x3d,
        0x35, 0x19, 0x0c, 0xbd, 0xfa, 0x7c, 0x23, 0xbd, 0x96, 0x40, 0x94, 0x3c,
        0x7e, 0xd8, 0x76, 0xbd, 0xaa, 0x3e, 0x99, 0xbd, 0x81, 0xef, 0xa2, 0xbc,
        0x50, 0xf9, 0x92, 0xbd, 0xbc, 0xab, 0xb6, 0x3d, 0xcc, 0xd1, 0x26, 0xbe,
        0x25, 0xd5, 0x2c, 0xbe, 0x9d, 0x3f, 0x83, 0xbd, 0x0e, 0xae, 0x03, 0xbe,
        0x7a, 0xb7, 0xdb, 0x3d, 0x44, 0x74, 0xe3, 0x3d, 0xfd, 0x23, 0xbf, 0x3d,
        0x21, 0x72, 0x15, 0xbd, 0xbf, 0x2f, 0xc1, 0xbd, 0xad, 0x7f, 0x83, 0x3d,
        0x7b, 0xa1, 0xa5, 0xbd, 0x22, 0xea, 0x99, 0x3c, 0x71, 0xe6, 0xd9, 0xbd,
        0xf1, 0x1d, 0x31, 0xbe, 0x3c, 0x40, 0xc6, 0xbd, 0xb3, 0x8e, 0xf8, 0x3d,
        0x49, 0xc1, 0x28, 0xbd, 0x66, 0xf9, 0x6a, 0x3c, 0xe2, 0xc7, 0x25, 0xbe,
        0x11, 0x31, 0xf5, 0xbc, 0x18, 0x0e, 0x17, 0xbd, 0xc6, 0xd7, 0x0c, 0xbe,
        0xee, 0xa2, 0x85, 0x3d, 0xf2, 0x4f, 0xa9, 0x3b, 0x9f, 0xce, 0x3c, 0xbe,
        0xe2, 0xfc, 0xe3, 0x3c, 0x48, 0x08, 0x25, 0x3b, 0x95, 0xcb, 0xa7, 0xbd,
        0x06, 0x5f, 0x31, 0xbe, 0x6e, 0x22, 0xdf, 0x3d, 0x8c, 0x6c, 0xa8, 0xbd,
        0x38, 0xc7, 0x02, 0xbe, 0xcd, 0xce, 0xc7, 0x3d, 0x6e, 0x25, 0x13, 0xbe,
        0xa8, 0xec, 0xb4, 0xbc, 0xa8, 0xdc, 0xd2, 0xbc, 0xb0, 0x03, 0x8d, 0x3d,
        0x36, 0xa7, 0x04, 0x3e, 0x39, 0x48, 0x0b, 0xbd, 0xc7, 0x89, 0x77, 0x3d,
        0xdd, 0xde, 0x95, 0xbd, 0xa0, 0x6d, 0xb5, 0x3c, 0x5c, 0xa5, 0x9c, 0x3c,
        0xc4, 0xcb, 0xa6, 0xbd, 0x5f, 0x87, 0x38, 0xbe, 0x08, 0xe0, 0xea, 0xb9,
        0x04, 0xed, 0x03, 0xbe, 0xe8, 0x87, 0xc0, 0xbd, 0xa9, 0x80, 0xd2, 0xbc,
        0xc4, 0xf2, 0x5c, 0x3d, 0xcf, 0x06, 0xa1, 0x3c, 0xf6, 0xc8, 0x08, 0x3c,
        0x39, 0x02, 0x9b, 0xbd, 0xb8, 0x93, 0x0d, 0xbd, 0x1f, 0xe5, 0xe3, 0xbd,
        0x76, 0x78, 0x84, 0x3d, 0x9e, 0xfb, 0x1c, 0xbd, 0x99, 0x6d, 0x0e, 0xbe,
        0xb7, 0xbb, 0x28, 0xbe, 0xff, 0x55, 0xc4, 0xbc, 0x8e, 0xd2, 0x04, 0xbe,
        0x57, 0x68, 0x98, 0xbd, 0xd6, 0x3e, 0x2f, 0xbe, 0xbd, 0x23, 0x60, 0xbd,
        0x64, 0xe3, 0xc7, 0x3d, 0x12, 0x35, 0xf9, 0xbd, 0x2a, 0x6f, 0x29, 0xbe,
        0xe1, 0x37, 0x63, 0xbe, 0x77, 0xd8, 0x21, 0x3d, 0x95, 0x5b, 0xc6, 0x3d,
        0xe6, 0xdd, 0x05, 0xbe, 0xf9, 0xe4, 0x15, 0xbe, 0xd6, 0xed, 0x4f, 0xbe,
        0xb5, 0x3a, 0xb6, 0x3d, 0xf7, 0xab, 0x26, 0xbe, 0xc5, 0xb2, 0x27, 0xbe,
        0xb7, 0xc7, 0x21, 0xbe, 0xff, 0xf3, 0x97, 0xbd, 0x5c, 0xda, 0x8f, 0xbd,
        0x34, 0xbe, 0x4d, 0x3d, 0xf9, 0x1b, 0x6d, 0xbd, 0xab, 0xa8, 0x23, 0xbe,
        0x2e, 0xd0, 0xdc, 0x3d, 0xbd, 0xde, 0x99, 0xbe, 0x64, 0x40, 0x30, 0xbe,
        0xb4, 0x37, 0xee, 0xbd, 0x19, 0x81, 0x75, 0xbd, 0xb8, 0xcf, 0x25, 0xbe,
        0x03, 0xef, 0x11, 0xbe, 0x99, 0x0b, 0x5d, 0xbc, 0xbb, 0x58, 0x3f, 0x3c,
        0xe2, 0x19, 0xc9, 0x3c, 0x22, 0x49, 0xc1, 0x3d, 0x8f, 0x0c, 0x1a, 0xbe,
        0x44, 0xba, 0x3c, 0x3d, 0x16, 0x16, 0x8d, 0x3d, 0xc4, 0x46, 0x10, 0xbe,
        0x31, 0x3f, 0x10, 0xbd, 0x0e, 0x72, 0xee, 0xbd, 0x58, 0x32, 0x2e, 0xbd,
        0x55, 0x9e, 0xfa, 0xbc, 0x20, 0xdd, 0x11, 0x3e, 0x92, 0xba, 0x50, 0x3d,
        0x44, 0x8d, 0x9b, 0x3d, 0x16, 0x68, 0x67, 0xbd, 0xf0, 0xf0, 0x8d, 0xbc,
        0xbb, 0xc6, 0x25, 0xbe, 0xae, 0x80, 0x75, 0x3d, 0xfa, 0xca, 0xfc, 0xbd,
        0x1b, 0xc8, 0x34, 0xbe, 0xff, 0x08, 0x48, 0x3d, 0xd4, 0xb4, 0xf4, 0xbc,
        0x6b, 0xe3, 0xb2, 0xbd, 0x0c, 0xa3, 0x0e, 0xbe, 0x0f, 0xa0, 0x3d, 0x3d,
        0x88, 0x1e, 0x63, 0xbd, 0x1d, 0xaf, 0xbe, 0x3c, 0x99, 0x64, 0xf6, 0xbd,
        0xa2, 0x70, 0xcc, 0xbd, 0xb7, 0x2f, 0xa8, 0x3d, 0x8f, 0x3b, 0xa0, 0xbc,
        0x6a, 0x56, 0x35, 0xbd, 0x2f, 0x67, 0x9c, 0xbd, 0x35, 0xa5, 0xf7, 0x3c,
        0xeb, 0xdf, 0x44, 0xbe, 0x6b, 0xaf, 0x80, 0xbd, 0x0a, 0xc9, 0xaa, 0xbc,
        0xf8, 0x1b, 0xa1, 0x3d, 0xe1, 0xc0, 0x18, 0xbe, 0x66, 0x55, 0xfb, 0xbd,
        0x9d, 0x1a, 0xcd, 0x3c, 0x17, 0xac, 0x9d, 0xbc, 0x10, 0x17, 0x51, 0xbd,
        0x04, 0x01, 0x1d, 0xbd, 0x6a, 0xea, 0x8f, 0xbd, 0xaf, 0xbe, 0x17, 0xbe,
        0x50, 0x32, 0x26, 0x3d, 0xc4, 0x54, 0x91, 0xbd, 0x28, 0xfd, 0xcc, 0xbd,
        0x67, 0x50, 0x8f, 0x3d, 0x71, 0x74, 0xfe, 0xbd, 0x73, 0x46, 0x8a, 0x3d,
        0x14, 0xb5, 0x3e, 0x3d, 0x45, 0x3e, 0x8a, 0x3c, 0x0d, 0xca, 0x43, 0xbd,
        0x31, 0x23, 0x90, 0x3d, 0x90, 0x97, 0x1f, 0x3d, 0x04, 0x95, 0x38, 0xbe,
        0xe9, 0xc8, 0x37, 0xbe, 0xe7, 0x82, 0x0f, 0xbe, 0xc0, 0x3f, 0x30, 0xbd,
        0x65, 0x1a, 0xa3, 0x3d, 0x9d, 0x5a, 0xb8, 0xbd, 0x15, 0x3e, 0xd5, 0x3d,
        0xea, 0xd8, 0xc9, 0xbd, 0xa5, 0x5b, 0x3a, 0x3d, 0xd9, 0xa5, 0xeb, 0x3c,
        0x86, 0xbc, 0x29, 0xbd, 0x71, 0xf2, 0x30, 0xbd, 0xd6, 0xa9, 0x03, 0xbd,
        0x64, 0x09, 0xe5, 0xbd, 0x59, 0x3f, 0x9d, 0xbd, 0xc6, 0xe2, 0x12, 0x3d,
        0x38, 0x90, 0x1f, 0xbe, 0x17, 0xc7, 0xb8, 0xbd, 0xe1, 0x38, 0x94, 0xbd,
        0x08, 0xfd, 0x02, 0xbe, 0x9a, 0xf9, 0xbe, 0xbd, 0x49, 0x80, 0x29, 0xbd,
        0xaa, 0x1b, 0x15, 0x3d, 0xaa, 0x6e, 0x8d, 0xbd, 0xca, 0x9b, 0x70, 0x3c,
        0x8b, 0xab, 0x9a, 0xbc, 0x94, 0x54, 0xc5, 0x3d, 0x99, 0x37, 0xea, 0x3d,
        0x30, 0x33, 0x5e, 0xbd, 0x9c, 0x6c, 0x88, 0xbd, 0x7a, 0x07, 0x80, 0xbd,
        0x43, 0x67, 0x53, 0x3e, 0x55, 0x24, 0x88, 0xbd, 0xcf, 0x54, 0xe2, 0x3d,
        0xe8, 0x16, 0xae, 0xbc, 0xaf, 0x7f, 0x46, 0xbd, 0xd0, 0x22, 0x59, 0x3d,
        0x37, 0x04, 0x6c, 0xbe, 0xc6, 0x73, 0x27, 0xbe, 0xc9, 0xec, 0xda, 0x3d,
        0x6e, 0x65, 0x75, 0xbe, 0x8c, 0x62, 0xd1, 0xba, 0xc8, 0x23, 0x5c, 0xbe,
        0x93, 0x7e, 0x86, 0x3d, 0x44, 0x40, 0x94, 0x3d, 0xe2, 0xe6, 0xa4, 0xbd,
        0x2c, 0xee, 0x13, 0x3d, 0x44, 0xfe, 0x18, 0xbe, 0x9b, 0xbb, 0x9c, 0xbe,
        0x6e, 0x40, 0xa9, 0xbb, 0x7b, 0xe3, 0x1f, 0x3c, 0x06, 0xc0, 0x9d, 0xbd,
        0xec, 0xff, 0xa3, 0x3d, 0x23, 0xae, 0x43, 0xbd, 0x78, 0xa1, 0x01, 0xbd,
        0xea, 0x3d, 0x9e, 0x3c, 0x89, 0x7c, 0x1a, 0x3c, 0x80, 0xfc, 0x43, 0xbe,
        0xa3, 0x4f, 0x25, 0xbe, 0x2e, 0x5f, 0x0a, 0x3e, 0x6e, 0xa7, 0xdf, 0x3d,
        0xcd, 0xe4, 0xad, 0x3b, 0x61, 0x5f, 0x43, 0xbe, 0x6b, 0x3f, 0xd5, 0xbb,
        0x23, 0x4c, 0x49, 0xbe, 0x6f, 0x7b, 0x3d, 0x3d, 0xac, 0x22, 0x74, 0x3d,
        0x0b, 0x45, 0xbc, 0x3d, 0x1e, 0x41, 0x42, 0xbc, 0x3f, 0x6c, 0xec, 0xbd,
        0x23, 0x5e, 0x91, 0x3a, 0xdc, 0x6b, 0xe6, 0xbd, 0xef, 0x4d, 0x2e, 0xbe,
        0xed, 0xc3, 0x3f, 0xbe, 0xcd, 0x26, 0x3a, 0x3a, 0x68, 0x97, 0xaf, 0xbd,
        0xbf, 0x7c, 0xe7, 0xbc, 0x7e, 0x3c, 0x36, 0xbe, 0x2a, 0xc8, 0xe6, 0xbd,
        0x76, 0x95, 0x17, 0xbe, 0xc1, 0xdd, 0x0e, 0xbe, 0xf3, 0xcb, 0xd7, 0xbc,
        0x9f, 0xb9, 0x41, 0x3b, 0x4e, 0x19, 0x8a, 0xbd, 0xd3, 0xe1, 0x82, 0xbc,
        0x63, 0x36, 0xd7, 0xbd, 0x2b, 0xd7, 0x7e, 0xbe, 0xa5, 0xf4, 0x1e, 0xbe,
        0x14, 0x3c, 0xb1, 0x3c, 0x50, 0x71, 0x73, 0x3d, 0x03, 0xef, 0xa3, 0x3c,
        0x74, 0xf5, 0xe7, 0xbd, 0x7e, 0xb6, 0x5b, 0x3b, 0xbe, 0x86, 0x4f, 0xbe,
        0xa7, 0xb0, 0x2e, 0xbd, 0x1d, 0x72, 0xa4, 0x3d, 0xc6, 0xa1, 0x90, 0xbe,
        0xf0, 0x76, 0xc8, 0x3d, 0x13, 0xa5, 0x46, 0xbe, 0xeb, 0x27, 0x2b, 0xbd,
        0xb3, 0x88, 0xc4, 0xbd, 0xc7, 0x66, 0x30, 0x3e, 0xea, 0x40, 0xaa, 0xbd,
        0xd3, 0x3e, 0x0d, 0x3e, 0x4f, 0xec, 0x67, 0xbe, 0xfb, 0x1d, 0xeb, 0xbd,
        0x08, 0x89, 0x26, 0xbe, 0x5c, 0xc7, 0xec, 0xbd, 0xe7, 0xef, 0xb3, 0xbd,
        0xc7, 0x22, 0x14, 0xbb, 0xdb, 0xfe, 0xe9, 0x3c, 0x25, 0x6d, 0xd1, 0xbd,
        0x07, 0x1b, 0x59, 0xbe, 0x70, 0xc5, 0x12, 0x3e, 0x0f, 0x58, 0x8b, 0x3c,
        0x7d, 0xda, 0xd9, 0x3c, 0x61, 0x40, 0x9f, 0xbd, 0x0a, 0xb2, 0x3d, 0xbe,
        0xb8, 0xad, 0x0d, 0xbe, 0x57, 0x4f, 0x06, 0x3e, 0x0c, 0xe7, 0x8a, 0xbc,
        0xea, 0xd1, 0x8a, 0xbe, 0x06, 0x5f, 0x06, 0xbe, 0x04, 0xd6, 0xcb, 0xbd,
        0x1d, 0xb7, 0xb0, 0xbd, 0xcc, 0x41, 0x54, 0xbd, 0xcf, 0x9c, 0xa4, 0x3d,
        0xdd, 0xb8, 0xa0, 0xbd, 0x59, 0x16, 0x22, 0xbd, 0x66, 0x6e, 0x00, 0xbe,
        0xd3, 0x3d, 0xf1, 0x38, 0xeb, 0xc0, 0xb5, 0x3b, 0xc4, 0x8c, 0x09, 0xbe,
        0xe8, 0x29, 0x21, 0xbe, 0xc1, 0xa4, 0x48, 0xbd, 0x17, 0xbc, 0xaf, 0x3c,
        0x31, 0x8e, 0xae, 0xbc, 0xff, 0xf8, 0xfa, 0xbd, 0xef, 0x5c, 0x76, 0xbe,
        0x30, 0x47, 0xad, 0xbd, 0xcb, 0x0e, 0x5b, 0xbe, 0xd2, 0x4e, 0x87, 0xbd,
        0x52, 0x79, 0xe6, 0x3d, 0x6e, 0x2e, 0xac, 0x3d, 0x16, 0x4e, 0x07, 0xbd,
        0x62, 0xb2, 0x8c, 0x3d, 0x00, 0x5d, 0x0e, 0xbe, 0xce, 0x5e, 0xbd, 0xbd,
        0x09, 0xbb, 0x02, 0xbe, 0xee, 0x5c, 0xd3, 0xbd, 0x5d, 0xfa, 0xb0, 0x3d,
        0x37, 0x15, 0x7e, 0xbb, 0x5c, 0x07, 0xa5, 0x3c, 0xce, 0x72, 0x05, 0xbe,
        0x99, 0xd8, 0x98, 0xbd, 0x73, 0x5a, 0x27, 0x3e, 0x44, 0x99, 0xb6, 0xbd,
        0xe2, 0x71, 0x44, 0xbe, 0x4d, 0x8d, 0x96, 0xbd, 0x9c, 0x72, 0xce, 0x3b,
        0xbc, 0x24, 0x06, 0xbe, 0x7c, 0x04, 0xc5, 0x3d, 0x83, 0xfb, 0x8e, 0xbd,
        0xb1, 0x7f, 0x1a, 0x3d, 0x46, 0x06, 0x03, 0xbe, 0xf7, 0xc0, 0xaa, 0xbd,
        0x6d, 0x76, 0x4a, 0xbe, 0x1b, 0x79, 0x71, 0x3d, 0xe5, 0xfe, 0x0f, 0xbe,
        0x9c, 0x23, 0x27, 0xbe, 0x51, 0x2f, 0xe9, 0xbd, 0x87, 0xfa, 0x1d, 0x3e,
        0x7c, 0x6d, 0x73, 0xbd, 0xdb, 0xbe, 0xca, 0xbd, 0x92, 0x8b, 0xe2, 0xbd,
        0x93, 0xb7, 0x13, 0x3d, 0x03, 0xb6, 0x86, 0xbd, 0xfd, 0x50, 0xe7, 0xba,
        0x18, 0xd4, 0x32, 0xbd, 0x04, 0xce, 0x7b, 0xbe, 0x7c, 0x63, 0xc4, 0x3b,
        0xfd, 0x38, 0x70, 0xbe, 0xf6, 0x2c, 0x18, 0xbe, 0x32, 0xb9, 0x56, 0x3c,
        0xa4, 0x6b, 0x48, 0x3c, 0xe0, 0xaa, 0x19, 0xbe, 0x5d, 0x8e, 0x03, 0xbd,
        0xbb, 0x54, 0xcf, 0xbd, 0x78, 0xfd, 0xcd, 0xbd, 0x3a, 0x0e, 0xf0, 0xbc,
        0xba, 0x31, 0x06, 0x3e, 0x4b, 0xc6, 0x9f, 0x3e, 0x8e, 0x6b, 0x42, 0xbe,
        0x9d, 0xae, 0x58, 0xbd, 0x57, 0x72, 0x83, 0x3d, 0xc4, 0xd1, 0x8e, 0x3d,
        0xab, 0xb1, 0x19, 0x3d, 0x41, 0xea, 0x66, 0xbe, 0xa9, 0x8e, 0xf9, 0x3d,
        0x3b, 0xaa, 0xa7, 0xbc, 0xe0, 0xbb, 0xd3, 0xbd, 0x77, 0x12, 0xf0, 0xbc,
        0xba, 0x7f, 0x00, 0xbe, 0xcd, 0xdf, 0xe7, 0xbd, 0x28, 0x28, 0x67, 0x3e,
        0x73, 0xd4, 0x47, 0xbe, 0x75, 0x8d, 0x1b, 0xbe, 0x56, 0xaa, 0xde, 0x3c,
        0x85, 0xdf, 0xdc, 0xbd, 0x03, 0xf7, 0xfa, 0x3c, 0xc8, 0x9a, 0xc3, 0xbd,
        0x5a, 0x4b, 0x32, 0xbb, 0x78, 0xf9, 0xdf, 0xbc, 0x8c, 0x75, 0xaf, 0xbb,
        0xae, 0xdb, 0xde, 0x3d, 0xa7, 0x3d, 0x53, 0xbe, 0xf2, 0xd5, 0x08, 0x3c,
        0xb9, 0xfa, 0xf2, 0xbd, 0xed, 0xb1, 0x82, 0xbd, 0x8d, 0x9b, 0x0b, 0xbe,
        0xd0, 0x8f, 0xce, 0xbc, 0x49, 0x01, 0x70, 0xbd, 0xa1, 0xea, 0x2b, 0x3e,
        0xa2, 0x09, 0x09, 0x3e, 0x26, 0x32, 0x28, 0xbd, 0xf2, 0x86, 0x23, 0xbc,
        0x57, 0xe8, 0x06, 0x3d, 0x32, 0xa1, 0xdd, 0xbd, 0x35, 0x0a, 0x5a, 0xbd,
        0xcc, 0xcf, 0x3f, 0xbe, 0x70, 0xa6, 0xfc, 0xbd, 0xff, 0x29, 0xfc, 0xbd,
        0xe1, 0x20, 0xbc, 0x3b, 0xe3, 0x03, 0xff, 0xbc, 0x98, 0xae, 0xd5, 0xbd,
        0xbf, 0x0e, 0x86, 0x3b, 0xc1, 0xcb, 0x84, 0xbd, 0xd1, 0xfd, 0x93, 0x3c,
        0x1d, 0xd4, 0x08, 0xbe, 0x12, 0xe3, 0x8b, 0x3c, 0xd7, 0x0a, 0x66, 0xbd,
        0x1b, 0xd3, 0x4c, 0x3e, 0x04, 0x67, 0xa8, 0x3d, 0x09, 0x07, 0x00, 0xbf,
        0x1e, 0x86, 0xa3, 0xbd, 0x19, 0xce, 0x2e, 0xbe, 0x3f, 0x28, 0x26, 0xbe,
        0xa4, 0x3b, 0xe7, 0x3d, 0x77, 0x31, 0xe6, 0x3d, 0x59, 0x1a, 0x22, 0x3d,
        0xd1, 0xa7, 0x64, 0x3e, 0xb9, 0x4d, 0x37, 0x3e, 0x95, 0x94, 0xe6, 0x3d,
        0xae, 0x60, 0x22, 0xbe, 0x5b, 0xf3, 0x2b, 0x3e, 0xc7, 0x0b, 0x95, 0xbc,
        0xf3, 0x0f, 0x1a, 0x3c, 0x75, 0xb8, 0x85, 0x3e, 0xe6, 0x78, 0x06, 0xbe,
        0x22, 0xc7, 0x83, 0xbe, 0x96, 0xee, 0x8d, 0xbe, 0x76, 0xab, 0x1f, 0xbd,
        0xf3, 0x81, 0x91, 0xbd, 0xbc, 0xe5, 0xac, 0x3d, 0xb1, 0x3c, 0x76, 0x3d,
        0x88, 0x35, 0xf4, 0xbb, 0x7c, 0x1e, 0x21, 0x3e, 0x47, 0xd1, 0xa8, 0x3e,
        0x66, 0x80, 0x47, 0x3d, 0xba, 0x7a, 0xd0, 0x3d, 0x0d, 0xb9, 0x51, 0x3e,
        0x19, 0xbf, 0x77, 0xbe, 0x9a, 0xc4, 0xcb, 0xbd, 0x16, 0x2a, 0x15, 0x3e,
        0xa8, 0xa1, 0xcd, 0xbc, 0xe3, 0x5b, 0x14, 0xbe, 0x5f, 0xcb, 0x17, 0x3b,
        0x53, 0x51, 0xbf, 0xbd, 0xe4, 0xf5, 0x60, 0xbe, 0xe2, 0xc5, 0xa4, 0x3c,
        0x4f, 0x5b, 0x65, 0x3e, 0xc3, 0xaf, 0xcc, 0x3d, 0xb6, 0x73, 0xf1, 0x3d,
        0x61, 0xcc, 0x46, 0x3e, 0xb6, 0x1d, 0xeb, 0x3e, 0x5c, 0xd0, 0xc7, 0x3d,
        0xa4, 0xdd, 0x79, 0x3d, 0x7d, 0x6f, 0xea, 0x3c, 0x0f, 0x4c, 0x62, 0xbd,
        0xa9, 0xdb, 0xd3, 0x3d, 0xdc, 0x4e, 0x62, 0x3d, 0x69, 0x7a, 0x93, 0xbe,
        0xde, 0x3e, 0xb6, 0xbe, 0x88, 0x32, 0x47, 0xbe, 0x0f, 0x93, 0xcf, 0xbd,
        0xe6, 0x4a, 0xff, 0xbb, 0x96, 0x7e, 0x0e, 0x3e, 0x31, 0xdf, 0xc7, 0x3d,
        0xb8, 0xc1, 0xb9, 0x3d, 0xdb, 0xb9, 0x2d, 0x3e, 0x03, 0xa1, 0x89, 0x3d,
        0x37, 0x57, 0xe5, 0x3c, 0xb0, 0x53, 0xc8, 0x3c, 0x04, 0x43, 0xd2, 0x3d,
        0x2e, 0x61, 0x0f, 0xbc, 0xe2, 0x65, 0x3e, 0x3d, 0x08, 0x65, 0x06, 0xbd,
        0xdb, 0xf0, 0x82, 0xbe, 0xec, 0x02, 0xab, 0xbe, 0x73, 0xf8, 0x7f, 0xbe,
        0xe7, 0xd3, 0x22, 0xbd, 0x53, 0x64, 0xf9, 0xbc, 0x7d, 0x47, 0xf3, 0x3d,
        0x04, 0xde, 0x24, 0x3e, 0xce, 0xa2, 0x16, 0x3e, 0x61, 0x73, 0x51, 0x3d,
        0xdb, 0xb0, 0xa9, 0x3e, 0xfe, 0xdc, 0x0f, 0xbe, 0x08, 0xe2, 0x72, 0xbc,
        0x93, 0xe4, 0x33, 0xbc, 0x31, 0xb2, 0xd6, 0xbb, 0x92, 0xfa, 0x8a, 0x3e,
        0x82, 0x9a, 0x11, 0x3d, 0xd7, 0xf2, 0x53, 0xbe, 0xbc, 0x1e, 0x66, 0xbe,
        0xab, 0x92, 0x0b, 0xbe, 0x6f, 0x54, 0xee, 0xbd, 0xb2, 0xc5, 0xdf, 0x3c,
        0x5d, 0x35, 0x5b, 0xbd, 0x3c, 0xa6, 0x45, 0x3e, 0x6f, 0x31, 0x25, 0x3d,
        0x40, 0x7a, 0xc8, 0x3d, 0x3f, 0x25, 0x93, 0x3e, 0x63, 0x84, 0x88, 0xbd,
        0x76, 0xef, 0x86, 0xbd, 0xe4, 0xa2, 0xac, 0xbb, 0x8d, 0x0d, 0x6e, 0xbd,
        0x47, 0xd1, 0x97, 0x3d, 0xb6, 0x33, 0x6f, 0x3e, 0x66, 0x24, 0xd7, 0x3c,
        0x87, 0xd5, 0xba, 0x38, 0x9e, 0xc6, 0xe8, 0xbd, 0xb5, 0xd5, 0x83, 0xbd,
        0x9b, 0xf9, 0xad, 0xbd, 0x89, 0x74, 0xa4, 0xbd, 0x1b, 0x13, 0x0f, 0x3e,
        0x08, 0xeb, 0x4d, 0x3e, 0xf8, 0xe3, 0x41, 0x3e, 0xf8, 0x2e, 0x63, 0x3e,
        0x78, 0x7d, 0x00, 0x3e, 0xa2, 0x0b, 0x9b, 0x3c, 0x94, 0x14, 0xb7, 0xbc,
        0x89, 0x1f, 0x10, 0x3c, 0x52, 0xa0, 0xcd, 0x3d, 0x7f, 0x5b, 0x0c, 0x3e,
        0x3a, 0x22, 0xef, 0x3d, 0x7f, 0xa8, 0x8d, 0xbe, 0xbd, 0xb1, 0x16, 0xbd,
        0x78, 0x8c, 0x8e, 0xbe, 0xda, 0x3b, 0x26, 0x3e, 0x1e, 0x27, 0x76, 0xbd,
        0xa0, 0xcf, 0x39, 0x3e, 0xf4, 0x3d, 0x5d, 0x3e, 0x60, 0x28, 0x0d, 0x3e,
        0xba, 0x8b, 0x40, 0x3e, 0x2f, 0x55, 0xa7, 0x3d, 0x5f, 0x3e, 0xec, 0x3d,
        0x13, 0xa1, 0x2c, 0xbe, 0x93, 0xbb, 0x89, 0xbc, 0xec, 0x31, 0x82, 0x3d,
        0x99, 0x08, 0xb0, 0x3d, 0x28, 0xfc, 0xca, 0x3d, 0x75, 0xcf, 0x1f, 0x3e,
        0xdc, 0xfb, 0x84, 0xbd, 0xb3, 0x9d, 0xea, 0xbe, 0x9c, 0xa3, 0x01, 0x3d,
        0x6a, 0x8c, 0x39, 0xbe, 0xba, 0x19, 0x81, 0x3e, 0x34, 0x85, 0xdf, 0x3d,
        0xe1, 0xbc, 0x29, 0xbd, 0xe7, 0xa9, 0x96, 0x3d, 0xc0, 0xa8, 0xcb, 0x3d,
        0x8f, 0xce, 0x95, 0x3d, 0x73, 0xa5, 0xb1, 0xbe, 0xef, 0x6f, 0x35, 0xbd,
        0x73, 0xcc, 0x53, 0x3e, 0x28, 0xec, 0x22, 0x3e, 0x4b, 0x22, 0x30, 0x3e,
        0x62, 0xd0, 0x19, 0x3e, 0x30, 0x9e, 0x6f, 0xbd, 0x0a, 0x18, 0xe2, 0xbd,
        0xb6, 0x21, 0xea, 0x3d, 0x5d, 0xb7, 0x9d, 0xbe, 0xb8, 0xad, 0x37, 0x3e,
        0x5b, 0x50, 0x28, 0xbe, 0xcc, 0xd3, 0x2e, 0x3b, 0xba, 0xcb, 0x4d, 0x3e,
        0x30, 0xa5, 0x08, 0x3e, 0xb8, 0xed, 0x56, 0xbe, 0x2f, 0xfc, 0x81, 0xbe,
        0x28, 0xa3, 0x02, 0xbd, 0xae, 0x17, 0x10, 0x3e, 0x28, 0xe9, 0x81, 0xbd,
        0x1d, 0x4b, 0xa1, 0x3e, 0x53, 0xa3, 0x69, 0xbe, 0x2c, 0x4c, 0x84, 0x3d,
        0xd8, 0x89, 0x01, 0xbe, 0x92, 0x8e, 0x8c, 0x3e, 0x7e, 0xa7, 0x0d, 0xbf,
        0x54, 0xe2, 0xac, 0x3d, 0xc9, 0x6c, 0x88, 0xbe, 0x27, 0x85, 0xbf, 0xbd,
        0x6e, 0x97, 0xb4, 0x3e, 0x3c, 0xaf, 0x3e, 0x3e, 0xc8, 0x77, 0x26, 0xbf,
        0x5e, 0x83, 0x57, 0xbe, 0xb9, 0x10, 0xcb, 0xbc, 0x7c, 0x15, 0x37, 0x3e,
        0xc3, 0x0b, 0xc8, 0xbd, 0xaf, 0xaf, 0x35, 0x3e, 0x36, 0xe8, 0x71, 0x3d,
        0x2a, 0x7c, 0x68, 0xbc, 0x41, 0xfb, 0xda, 0xbe, 0xc2, 0x47, 0x70, 0x3e,
        0x58, 0x26, 0x03, 0xbf, 0xa8, 0xe3, 0xd3, 0x3d, 0x4a, 0x5a, 0x97, 0xbe,
        0xd5, 0xd9, 0x8d, 0xbd, 0xe4, 0x85, 0x91, 0x3e, 0xd3, 0xef, 0x88, 0x3e,
        0xc5, 0x3d, 0x2a, 0xbf, 0xd7, 0xb5, 0x86, 0xbe, 0x14, 0xce, 0x06, 0xbe,
        0x72, 0xa0, 0x26, 0x3e, 0x08, 0xb5, 0x99, 0xbb, 0xd1, 0xc1, 0x85, 0x3e,
        0xfa, 0x2f, 0xd6, 0xbc, 0xa6, 0xb0, 0x25, 0xbd, 0xdb, 0xe7, 0x45, 0xbe,
        0x66, 0x1a, 0x9f, 0x3e, 0xf2, 0x36, 0xd3, 0xbe, 0xfc, 0xed, 0xb2, 0x3e,
        0x8a, 0x62, 0x63, 0xbe, 0x91, 0x57, 0x1f, 0xbe, 0x33, 0xd9, 0x54, 0x3d,
        0xb1, 0x08, 0x79, 0x3e, 0xf9, 0x02, 0x32, 0xbf, 0x82, 0xa6, 0x1d, 0xbe,
        0x35, 0x4e, 0x3b, 0xbc, 0xc3, 0x2b, 0xaf, 0x3d, 0xf8, 0xbe, 0x1d, 0xbe,
        0xdc, 0x6c, 0x66, 0x3e, 0x17, 0xbb, 0x0b, 0x3e, 0xcd, 0xc3, 0xe1, 0x3c,
        0x77, 0x45, 0xa7, 0xbe, 0x09, 0x8e, 0x55, 0x3e, 0x01, 0x53, 0xf7, 0xbe,
        0x1a, 0x6c, 0x39, 0x3e, 0x37, 0xda, 0x9c, 0xbe, 0x79, 0xdb, 0x8d, 0x3d,
        0xb6, 0xd2, 0xcb, 0x3d, 0x8b, 0x4a, 0xbb, 0x3d, 0xeb, 0x04, 0xf0, 0xbe,
        0x0e, 0x0f, 0x99, 0x3d, 0xee, 0xe3, 0x18, 0xbe, 0xd1, 0x4c, 0x23, 0x3e,
        0x4f, 0x84, 0x74, 0x3c, 0xb1, 0x07, 0x00, 0xbe, 0x7e, 0x3b, 0x96, 0x3b,
        0xa0, 0xc8, 0x05, 0xbe, 0x51, 0x11, 0x33, 0xbe, 0xc9, 0x7c, 0xac, 0x3d,
        0x78, 0xf8, 0x36, 0xbc, 0xec, 0xc0, 0x84, 0xbd, 0xf6, 0xa5, 0x3a, 0x3d,
        0xd7, 0x33, 0x49, 0xbb, 0xb2, 0xd9, 0x1f, 0x3d, 0x7a, 0x7e, 0x0a, 0x3e,
        0xdb, 0x92, 0x2a, 0xbe, 0x3d, 0x9d, 0xba, 0x3c, 0xc5, 0x14, 0xa0, 0xbe,
        0xd0, 0xf8, 0xf4, 0x3d, 0x83, 0x26, 0x20, 0xbe, 0x4d, 0x30, 0x69, 0xbd,
        0x1e, 0xa5, 0x0a, 0xbe, 0xd8, 0x5e, 0x4a, 0xbe, 0x90, 0x92, 0x8a, 0x3d,
        0x63, 0xe2, 0x97, 0x3d, 0x78, 0x57, 0x89, 0xbc, 0x19, 0x62, 0xfb, 0xbd,
        0x14, 0x2d, 0x5f, 0xbe, 0xc9, 0x1b, 0xe4, 0xbd, 0x33, 0xc9, 0xb0, 0xbc,
        0x45, 0xd5, 0x24, 0xbe, 0xe6, 0x80, 0xf3, 0xbd, 0x3d, 0xc1, 0x12, 0xbe,
        0x8b, 0xc7, 0x34, 0xbe, 0x17, 0xb0, 0x40, 0x3d, 0x48, 0xd5, 0xbf, 0xbd,
        0xb6, 0x25, 0x9f, 0xbc, 0x15, 0xc5, 0xf1, 0xbd, 0x9c, 0xc8, 0xe6, 0xbd,
        0xa6, 0x70, 0x2f, 0xbe, 0xd8, 0x3b, 0x3f, 0xbe, 0x09, 0xcc, 0xaf, 0xbd,
        0x1a, 0x1e, 0x84, 0xbd, 0xfd, 0xb4, 0x03, 0xbe, 0xc1, 0x4d, 0x02, 0xbe,
        0x72, 0x39, 0xd7, 0x3d, 0x2c, 0x22, 0x09, 0xbe, 0x93, 0xc7, 0xa4, 0xbb,
        0x3c, 0x17, 0xc0, 0xbd, 0x1a, 0x68, 0xcb, 0xbd, 0x4e, 0x34, 0xc9, 0xbb,
        0x9a, 0x6d, 0xf7, 0xbd, 0x76, 0x2a, 0xca, 0xbc, 0x09, 0x38, 0x1e, 0xbe,
        0x77, 0x76, 0x1a, 0xbc, 0xa7, 0xb4, 0x65, 0xbd, 0x4f, 0x01, 0x82, 0xbb,
        0x35, 0x12, 0x95, 0x3c, 0x64, 0xf6, 0xe6, 0xbb, 0x0c, 0x99, 0xb9, 0xbc,
        0x25, 0xb2, 0x26, 0xbd, 0x2b, 0x11, 0xa6, 0x3b, 0x06, 0xad, 0x96, 0x3d,
        0x27, 0xff, 0xb2, 0x3c, 0x15, 0x33, 0x23, 0x3d, 0xfc, 0x15, 0x67, 0xbe,
        0x6d, 0x09, 0xf2, 0x3b, 0xfd, 0xa9, 0x26, 0xbe, 0x04, 0xce, 0xab, 0x3d,
        0x30, 0x6a, 0x1b, 0x3d, 0x21, 0x61, 0x4b, 0xbe, 0x62, 0x0a, 0x2e, 0xbe,
        0xfe, 0x74, 0x8a, 0xbc, 0x16, 0x86, 0x53, 0xbe, 0x32, 0x4d, 0xa1, 0xbd,
        0x03, 0x91, 0xfd, 0xbd, 0x2f, 0xbe, 0x1b, 0x3e, 0x96, 0xf5, 0x12, 0xbe,
        0xc5, 0x95, 0x3d, 0xbe, 0x36, 0xf1, 0xf4, 0xbd, 0x9f, 0x0d, 0x2d, 0x3d,
        0x54, 0x7e, 0x6d, 0xbe, 0x8b, 0x29, 0x07, 0x3e, 0x5a, 0x85, 0xda, 0x3d,
        0x0a, 0xd1, 0x80, 0xbd, 0xea, 0x49, 0x03, 0xbe, 0x14, 0x86, 0xdf, 0xbc,
        0xca, 0x60, 0x22, 0x3d, 0x95, 0x85, 0x4b, 0x3d, 0xa3, 0xca, 0x95, 0xbd,
        0xaf, 0x01, 0xcc, 0xbd, 0xf3, 0x48, 0xad, 0xbd, 0xc7, 0x2d, 0x1e, 0x3e,
        0x2e, 0x0c, 0x8f, 0x3c, 0xe2, 0x2f, 0xac, 0x3d, 0x8d, 0x8b, 0x04, 0xbd,
        0xaa, 0xea, 0xff, 0xbb, 0x2a, 0xe7, 0x3a, 0xbe, 0xc9, 0x5c, 0xa5, 0xbd,
        0x34, 0x9b, 0x39, 0xbe, 0x09, 0xf9, 0xe2, 0x3c, 0x07, 0x10, 0xec, 0xbc,
        0xc2, 0xdd, 0x29, 0xbe, 0x94, 0xcd, 0x2d, 0x3d, 0x4e, 0x0c, 0xc7, 0x3a,
        0x47, 0x88, 0x2e, 0xbe, 0xdf, 0x6e, 0x07, 0x3d, 0x4d, 0xe5, 0x2a, 0x3d,
        0xbf, 0x0f, 0x6a, 0xbd, 0x65, 0x07, 0xd0, 0xbc, 0xfb, 0x99, 0xf6, 0xbd,
        0x15, 0xcd, 0x3e, 0xbe, 0xb6, 0x86, 0x76, 0xbd, 0x1d, 0xc7, 0x8d, 0xbd,
        0xca, 0xb1, 0xf1, 0x3a, 0xd2, 0xa2, 0xdf, 0x3d, 0x45, 0xfa, 0x08, 0xbe,
        0x08, 0xf8, 0x09, 0x3e, 0xf4, 0x57, 0xd8, 0x3a, 0x43, 0x75, 0x8e, 0x3c,
        0xdb, 0x2d, 0x89, 0xbc, 0xab, 0x6f, 0x63, 0xbc, 0x13, 0x63, 0x26, 0xbe,
        0xfb, 0x31, 0xe3, 0x3c, 0xba, 0xa5, 0xb5, 0xbc, 0xb3, 0x33, 0x89, 0xbd,
        0x05, 0xe9, 0xfd, 0xbc, 0x14, 0xeb, 0x49, 0xbe, 0x61, 0x74, 0xb9, 0xbd,
        0x3b, 0xd7, 0xba, 0xbc, 0x29, 0xa4, 0x22, 0xbe, 0x7c, 0xc3, 0xe4, 0x3d,
        0x0b, 0x91, 0x00, 0x3d, 0x4f, 0xfa, 0x2c, 0xbe, 0xa7, 0xd9, 0x24, 0xbd,
        0xe3, 0xeb, 0x1f, 0xbe, 0x03, 0x8c, 0xd8, 0x3d, 0xfd, 0x9c, 0xc5, 0x3d,
        0x88, 0xb3, 0x13, 0xbe, 0x3c, 0x5b, 0x9c, 0xbd, 0x2d, 0x43, 0x84, 0x3c,
        0x71, 0x79, 0x00, 0x3d, 0x59, 0xd3, 0x4d, 0xbd, 0xf1, 0x6e, 0x01, 0xbd,
        0x7a, 0xe5, 0xea, 0xbd, 0x3d, 0x56, 0x11, 0xbe, 0x4d, 0xd9, 0xc2, 0xbd,
        0xbb, 0xfc, 0x70, 0x3d, 0xad, 0x93, 0xb2, 0xbb, 0xac, 0x7d, 0x03, 0xbe,
        0x72, 0xec, 0x62, 0xbe, 0x1d, 0xa6, 0xcf, 0x3b, 0xe8, 0x7a, 0x00, 0xbe,
        0x09, 0xc3, 0x8d, 0x3d, 0x1b, 0x4e, 0x03, 0xbe, 0x44, 0xf5, 0x8f, 0x3d,
        0x4c, 0x56, 0x0b, 0x3c, 0x2e, 0x9c, 0xb0, 0x3d, 0x31, 0x39, 0x47, 0xbd,
        0x54, 0x1c, 0xf9, 0xbd, 0xef, 0x37, 0x9a, 0x3d, 0x85, 0x8b, 0x30, 0xbe,
        0x2c, 0xdd, 0x14, 0xbe, 0x4d, 0x53, 0x67, 0x3d, 0x8a, 0x15, 0xe5, 0xbd,
        0x92, 0xce, 0x9a, 0xbd, 0xdc, 0xdb, 0xdf, 0xbd, 0x5d, 0xa0, 0x87, 0x3c,
        0x13, 0xef, 0x88, 0x3d, 0x0c, 0x50, 0x48, 0xbe, 0x44, 0x0c, 0x08, 0x3d,
        0x3f, 0x99, 0x29, 0x3d, 0x84, 0x94, 0x1e, 0x3e, 0x1f, 0xcb, 0x5b, 0xbd,
        0xc4, 0xfc, 0x8e, 0xbd, 0x7e, 0x8b, 0x30, 0xbe, 0xb1, 0x8a, 0xcf, 0xbd,
        0xc6, 0xd8, 0x0a, 0x3c, 0xdc, 0x24, 0x50, 0x3d, 0xf4, 0xdc, 0xb9, 0xbd,
        0xd3, 0x2b, 0xfc, 0x3b, 0x77, 0x50, 0xe8, 0x3d, 0xa5, 0xed, 0x32, 0xbe,
        0x19, 0xbd, 0x26, 0xbe, 0xc4, 0x1a, 0x7e, 0x3d, 0x56, 0xca, 0x02, 0xbe,
        0x29, 0xd0, 0x7b, 0xbe, 0x07, 0x24, 0xd6, 0xbd, 0x64, 0x31, 0x14, 0xbd,
        0x73, 0x44, 0x07, 0x3e, 0x1b, 0x5c, 0x0c, 0xbe, 0x83, 0x23, 0x2b, 0xbe,
        0xb7, 0x60, 0xce, 0xbd, 0xed, 0xed, 0x3a, 0xbe, 0x2e, 0xb2, 0x9b, 0x3d,
        0xb6, 0x04, 0xd2, 0xbd, 0x4c, 0x97, 0x00, 0xbc, 0xc4, 0x59, 0x9e, 0xbd,
        0x4b, 0xd6, 0x29, 0x3d, 0xaf, 0x60, 0x61, 0xbd, 0x48, 0xef, 0x34, 0xbd,
        0x57, 0xa7, 0x00, 0x3b, 0x31, 0x1d, 0x6d, 0xbd, 0x24, 0x68, 0x67, 0xbd,
        0x80, 0x51, 0xb5, 0x3d, 0x6a, 0xb8, 0x07, 0x3c, 0xf1, 0x01, 0x3d, 0x3d,
        0xf8, 0x94, 0x5b, 0xbe, 0x6a, 0x4d, 0xda, 0xbd, 0xb9, 0xb3, 0x91, 0xbe,
        0x59, 0x1c, 0x37, 0x3d, 0xa5, 0xa2, 0x06, 0xbd, 0xd6, 0xb6, 0xb9, 0x3d,
        0x03, 0x2d, 0x08, 0x3e, 0x4c, 0x59, 0x4c, 0xbd, 0xef, 0xcc, 0x36, 0x3d,
        0xe7, 0x08, 0x4d, 0xbd, 0x33, 0xb2, 0xeb, 0x3d, 0x0d, 0x35, 0x8c, 0xbd,
        0x48, 0xc4, 0x04, 0x3e, 0x38, 0x16, 0x83, 0x3b, 0x5e, 0xe6, 0xad, 0xbd,
        0xa6, 0x34, 0x92, 0x3d, 0x49, 0x08, 0xfe, 0xbd, 0xec, 0x50, 0x6e, 0xbd,
        0x04, 0x3e, 0x3f, 0xbe, 0xd8, 0xab, 0x03, 0x3c, 0x68, 0xac, 0xfa, 0x3c,
        0x96, 0xe8, 0x84, 0x3c, 0x47, 0x40, 0x51, 0x3d, 0x43, 0x29, 0x21, 0xbe,
        0xf3, 0x2a, 0xc9, 0xbd, 0x7c, 0xcc, 0x0b, 0x3e, 0x74, 0x14, 0x88, 0x3d,
        0xe0, 0x34, 0xa5, 0x3c, 0x9f, 0x38, 0xad, 0x3c, 0x63, 0x9c, 0x04, 0x3c,
        0xca, 0x74, 0x99, 0x3d, 0xd8, 0x79, 0x2f, 0xbc, 0xbf, 0x33, 0x31, 0xbe,
        0x48, 0x9d, 0xa6, 0xbd, 0x75, 0x8a, 0x29, 0xbe, 0x0e, 0x84, 0x1a, 0x3d,
        0xde, 0x77, 0x10, 0xbd, 0x21, 0xc2, 0x04, 0x3d, 0x9e, 0xd7, 0xc3, 0xbd,
        0x9c, 0xbe, 0x22, 0xbe, 0x6c, 0xf2, 0xc4, 0xbd, 0x4c, 0x9a, 0x13, 0xbd,
        0x6c, 0xb3, 0xdd, 0x3d, 0x5e, 0xc4, 0x03, 0xbe, 0xa1, 0xf8, 0x0e, 0x3d,
        0x90, 0xa1, 0xb1, 0x3d, 0x95, 0x99, 0xd3, 0xbd, 0x09, 0x7e, 0x08, 0xbe,
        0xde, 0x89, 0xa7, 0x3d, 0x18, 0x95, 0x2d, 0xbe, 0x1f, 0xa1, 0x1e, 0xbe,
        0x93, 0x3a, 0xdb, 0xbd, 0x52, 0xee, 0xf1, 0x3d, 0x84, 0x20, 0xfe, 0x3d,
        0xaa, 0x94, 0xb2, 0x3d, 0xfc, 0x0a, 0x65, 0x3d, 0x20, 0x92, 0x81, 0xbd,
        0x32, 0x3a, 0x95, 0xbd, 0xa9, 0x2f, 0xe2, 0xbd, 0x61, 0xf6, 0x28, 0xbe,
        0x85, 0xb5, 0x2e, 0xbe, 0x11, 0x68, 0xa2, 0x3c, 0x80, 0x61, 0xc6, 0xbd,
        0x1b, 0xd6, 0xd2, 0x3d, 0x96, 0xc6, 0xb1, 0x3d, 0x8c, 0x67, 0xd4, 0xbd,
        0x7f, 0xec, 0x9f, 0xbc, 0x5a, 0x9e, 0x6b, 0xbb, 0xd1, 0x20, 0x93, 0x39,
        0x6b, 0x35, 0xaf, 0xba, 0x3f, 0xae, 0x2c, 0xbe, 0x54, 0x37, 0xa5, 0xbd,
        0x90, 0x7b, 0x1f, 0xbe, 0xc6, 0xd5, 0x03, 0x3e, 0x13, 0x0e, 0x3b, 0xbd,
        0x69, 0xf7, 0xbf, 0x3c, 0xe6, 0xbc, 0x89, 0x3d, 0x0a, 0xb9, 0xe6, 0x3b,
        0x6a, 0xcf, 0x85, 0x3d, 0x44, 0x58, 0xcc, 0xbd, 0x3c, 0x43, 0x1c, 0xbc,
        0xbd, 0x29, 0x62, 0x3c, 0xc4, 0x24, 0xa5, 0xbd, 0x11, 0x9c, 0x3b, 0xbe,
        0x96, 0x90, 0x0e, 0xbe, 0xdf, 0x51, 0x03, 0xbe, 0xc6, 0xf3, 0x13, 0xbe,
        0x9d, 0x77, 0xfd, 0xbd, 0x8a, 0x06, 0x2e, 0xbe, 0x04, 0xba, 0x25, 0xbe,
        0x5f, 0x89, 0x27, 0xbe, 0x7c, 0xe7, 0x1e, 0xbe, 0xa4, 0x41, 0xa9, 0x3d,
        0xb0, 0x79, 0x86, 0x3d, 0x71, 0x67, 0xed, 0x3c, 0xd0, 0xf1, 0x4d, 0xbe,
        0x7a, 0x4c, 0x3f, 0xbe, 0xcc, 0x5f, 0xde, 0xbd, 0x30, 0x7d, 0x54, 0xbe,
        0x62, 0xb0, 0x1a, 0x3d, 0xb5, 0xc8, 0x10, 0x3e, 0xb4, 0x71, 0x22, 0xbe,
        0xf1, 0x07, 0x22, 0xbe, 0x67, 0x43, 0xa3, 0xbd, 0x3e, 0x2a, 0x55, 0xbe,
        0xc3, 0xaf, 0xf7, 0x3c, 0x81, 0x32, 0xa8, 0xbb, 0x25, 0xad, 0x16, 0x3d,
        0xc2, 0x89, 0xaf, 0xbc, 0xf1, 0x1d, 0x43, 0x3d, 0xa8, 0xe6, 0xee, 0xbd,
        0x3b, 0x4e, 0xaa, 0x3d, 0x7c, 0x49, 0x45, 0xbe, 0x20, 0xc8, 0x4d, 0x3a,
        0xf7, 0xa1, 0x28, 0xbd, 0xb0, 0x40, 0x67, 0x3d, 0xe1, 0xa2, 0x0b, 0x3e,
        0x37, 0x5d, 0xfa, 0x3d, 0x88, 0xde, 0xad, 0xbc, 0xaa, 0xbb, 0x27, 0xbe,
        0x0d, 0xed, 0x80, 0x3d, 0x18, 0xd1, 0xc6, 0x3d, 0xd9, 0xca, 0x3f, 0xbd,
        0x9c, 0xa3, 0x71, 0xbe, 0x2f, 0xa0, 0x3a, 0xbe, 0xfa, 0x78, 0x02, 0xbe,
        0x4e, 0xb1, 0xac, 0xbc, 0x5a, 0x74, 0xf6, 0x3d, 0xe9, 0xd9, 0x24, 0xbe,
        0x7d, 0x56, 0x77, 0x3d, 0x4e, 0x22, 0xb4, 0x3c, 0x0b, 0xc4, 0xc3, 0x3d,
        0x92, 0x09, 0xe3, 0x3d, 0xba, 0x06, 0x48, 0xbe, 0xd0, 0x43, 0xf8, 0xbc,
        0xaa, 0x4d, 0xca, 0xbd, 0x8e, 0x74, 0xa6, 0x3d, 0xe4, 0x08, 0x2b, 0xbe,
        0xe7, 0xa5, 0x5c, 0xbd, 0x84, 0x4a, 0x08, 0xbe, 0xbf, 0x30, 0x51, 0xbd,
        0x63, 0x44, 0xc0, 0x3d, 0xf3, 0xe1, 0xcc, 0x3c, 0x42, 0xbe, 0x8f, 0xbd,
        0x99, 0x0c, 0x92, 0xbc, 0x71, 0x03, 0xdb, 0x3d, 0x9d, 0x91, 0x86, 0xbe,
        0xcd, 0xb4, 0xaa, 0x3d, 0xac, 0x3d, 0x07, 0xbe, 0xee, 0xe0, 0x0c, 0x3c,
        0xa5, 0x60, 0x02, 0x3e, 0x50, 0xa5, 0x1c, 0xbe, 0x84, 0xed, 0x55, 0xbd,
        0x47, 0xf3, 0xca, 0xbd, 0x2e, 0xe5, 0xec, 0x3c, 0x66, 0x38, 0x38, 0x3d,
        0x1f, 0xe2, 0x14, 0xbe, 0x02, 0x46, 0x1e, 0xbe, 0x35, 0xcc, 0x31, 0xbe,
        0x44, 0x0f, 0x02, 0xbe, 0x47, 0xe8, 0x06, 0xbe, 0x54, 0xa6, 0x4f, 0x3d,
        0x87, 0x0b, 0x34, 0xbb, 0x3a, 0x2b, 0x10, 0x3d, 0xa0, 0x06, 0xfc, 0xbb,
        0x0d, 0xca, 0x00, 0x3d, 0xd3, 0x79, 0xc1, 0x3d, 0x1e, 0x93, 0x88, 0xbc,
        0xb1, 0xb1, 0xaa, 0x3d, 0xae, 0x0f, 0x36, 0x3d, 0x09, 0xf5, 0xf4, 0x3c,
        0x19, 0x0d, 0x45, 0xbe, 0xf7, 0xf9, 0x9f, 0xbd, 0xf5, 0xce, 0x87, 0xbb,
        0xac, 0x0b, 0xaf, 0xbd, 0x47, 0xe3, 0xbe, 0x3d, 0x67, 0x6c, 0x7b, 0x3d,
        0x7c, 0xf7, 0x07, 0x3e, 0x68, 0x87, 0x5e, 0xbe, 0x22, 0xa0, 0xbd, 0xbd,
        0xf4, 0x99, 0x23, 0x3d, 0xdb, 0xb2, 0xf2, 0xbd, 0x01, 0x3c, 0x97, 0xbd,
        0xe0, 0x6e, 0xec, 0xbd, 0xd5, 0x49, 0xb5, 0xbd, 0x03, 0xba, 0x9d, 0x3d,
        0xca, 0xf9, 0xcd, 0xbd, 0x92, 0xdb, 0x80, 0x3d, 0xe4, 0x17, 0x3c, 0x3d,
        0x2a, 0x3b, 0xdb, 0x3d, 0x9a, 0xfc, 0x7e, 0x3d, 0xf4, 0xaa, 0x96, 0x3d,
        0xbd, 0x15, 0xc5, 0x3c, 0xbe, 0x95, 0xd0, 0xbd, 0x91, 0x0b, 0xdc, 0xbc,
        0x4c, 0x89, 0x98, 0x3d, 0x7d, 0x0e, 0x21, 0xbe, 0x8f, 0x72, 0x0c, 0xbe,
        0xc2, 0xd0, 0x2a, 0xbe, 0x48, 0x59, 0x13, 0xbe, 0xde, 0xd3, 0x26, 0xbe,
        0xa1, 0x5b, 0xd2, 0x3c, 0x77, 0x1b, 0xf1, 0xbb, 0x6e, 0x7e, 0x9e, 0xbd,
        0x14, 0x1d, 0xb1, 0xbd, 0xdf, 0x27, 0xfc, 0x3d, 0xf1, 0x32, 0x08, 0xbe,
        0x60, 0xb6, 0xd4, 0x3c, 0xbc, 0xef, 0xb2, 0xbc, 0x20, 0x9b, 0x0b, 0xbe,
        0x56, 0xa5, 0xb2, 0xbd, 0x0e, 0xca, 0x8e, 0xbd, 0x80, 0xef, 0xff, 0xbb,
        0xd1, 0x86, 0x92, 0xbd, 0xaf, 0x7d, 0x6b, 0xbd, 0xf7, 0xc8, 0x21, 0xbe,
        0xdf, 0x00, 0x17, 0xbd, 0xb4, 0x50, 0x17, 0x3e, 0x8a, 0xc1, 0xf0, 0xbd,
        0xe1, 0x1a, 0xec, 0x3b, 0x06, 0x0b, 0x45, 0x3d, 0x40, 0x5f, 0x6a, 0x3b,
        0x8e, 0x3e, 0x40, 0xbe, 0x71, 0xb5, 0x5c, 0xbd, 0x14, 0xf2, 0x22, 0xbd,
        0xc9, 0xa2, 0x8c, 0x3d, 0xe4, 0xd7, 0x1d, 0xbe, 0x04, 0x9b, 0x46, 0xbe,
